{
  "version": "1.0",
  "truncation": null,
  "padding": null,
  "added_tokens": [
    {
      "id": 0,
      "content": "<think>",
      "single_word": false,
      "lstrip": false,
      "rstrip": false,
      "normalized": false,
      "special": true
    },
    {
      "id": 1,
      "content": "</think>",
      "single_word": false,
      "lstrip": false,
      "rstrip": false,
      "normalized": false,
      "special": true
    },
    {
      "id": 2,
      "content": "<start>",
      "single_word": false,
      "lstrip": false,
      "rstrip": false,
      "normalized": false,
      "special": true
    },
    {
      "id": 3,
      "content": "<end>",
      "single_word": false,
      "lstrip": false,
      "rstrip": false,
      "normalized": false,
      "special": true
    },
    {
      "id": 4,
      "content": "<pad>",
      "single_word": false,
      "lstrip": false,
      "rstrip": false,
      "normalized": false,
      "special": true
    },
    {
      "id": 5,
      "content": "<unk>",
      "single_word": false,
      "lstrip": false,
      "rstrip": false,
      "normalized": false,
      "special": true
    }
  ],
  "normalizer": null,
  "pre_tokenizer": {
    "type": "Whitespace"
  },
  "post_processor": {
    "type": "TemplateProcessing",
    "single": [
      {
        "Sequence": {
          "id": "A",
          "type_id": 0
        }
      }
    ],
    "pair": [
      {
        "Sequence": {
          "id": "A",
          "type_id": 0
        }
      },
      {
        "Sequence": {
          "id": "B",
          "type_id": 0
        }
      }
    ],
    "special_tokens": {
      "</think>": {
        "id": "</think>",
        "ids": [
          1
        ],
        "tokens": [
          "</think>"
        ]
      },
      "<end>": {
        "id": "<end>",
        "ids": [
          3
        ],
        "tokens": [
          "<end>"
        ]
      },
      "<pad>": {
        "id": "<pad>",
        "ids": [
          4
        ],
        "tokens": [
          "<pad>"
        ]
      },
      "<start>": {
        "id": "<start>",
        "ids": [
          2
        ],
        "tokens": [
          "<start>"
        ]
      },
      "<think>": {
        "id": "<think>",
        "ids": [
          0
        ],
        "tokens": [
          "<think>"
        ]
      },
      "<unk>": {
        "id": "<unk>",
        "ids": [
          5
        ],
        "tokens": [
          "<unk>"
        ]
      }
    }
  },
  "decoder": {
    "type": "BPEDecoder",
    "suffix": "</w>"
  },
  "model": {
    "type": "BPE",
    "dropout": null,
    "unk_token": "<unk>",
    "continuing_subword_prefix": null,
    "end_of_word_suffix": null,
    "fuse_unk": false,
    "byte_fallback": false,
    "ignore_merges": false,
    "vocab": {
      "<think>": 0,
      "</think>": 1,
      "<start>": 2,
      "<end>": 3,
      "<pad>": 4,
      "<unk>": 5,
      "!": 6,
      "\"": 7,
      "#": 8,
      "$": 9,
      "%": 10,
      "&": 11,
      "'": 12,
      "(": 13,
      ")": 14,
      "*": 15,
      "+": 16,
      ",": 17,
      "-": 18,
      ".": 19,
      "/": 20,
      "0": 21,
      "1": 22,
      "2": 23,
      "3": 24,
      "4": 25,
      "5": 26,
      "6": 27,
      "7": 28,
      "8": 29,
      "9": 30,
      ":": 31,
      ";": 32,
      "<": 33,
      "=": 34,
      ">": 35,
      "?": 36,
      "@": 37,
      "A": 38,
      "B": 39,
      "C": 40,
      "D": 41,
      "E": 42,
      "F": 43,
      "G": 44,
      "H": 45,
      "I": 46,
      "J": 47,
      "K": 48,
      "L": 49,
      "M": 50,
      "N": 51,
      "O": 52,
      "P": 53,
      "Q": 54,
      "R": 55,
      "S": 56,
      "T": 57,
      "U": 58,
      "V": 59,
      "W": 60,
      "X": 61,
      "Y": 62,
      "Z": 63,
      "[": 64,
      "\\": 65,
      "]": 66,
      "^": 67,
      "_": 68,
      "`": 69,
      "a": 70,
      "b": 71,
      "c": 72,
      "d": 73,
      "e": 74,
      "f": 75,
      "g": 76,
      "h": 77,
      "i": 78,
      "j": 79,
      "k": 80,
      "l": 81,
      "m": 82,
      "n": 83,
      "o": 84,
      "p": 85,
      "q": 86,
      "r": 87,
      "s": 88,
      "t": 89,
      "u": 90,
      "v": 91,
      "w": 92,
      "x": 93,
      "y": 94,
      "z": 95,
      "{": 96,
      "|": 97,
      "}": 98,
      "~": 99,
      "¡": 100,
      "¢": 101,
      "£": 102,
      "¥": 103,
      "¨": 104,
      "©": 105,
      "°": 106,
      "±": 107,
      "²": 108,
      "³": 109,
      "¶": 110,
      "·": 111,
      "¹": 112,
      "º": 113,
      "¼": 114,
      "½": 115,
      "¾": 116,
      "¿": 117,
      "À": 118,
      "Á": 119,
      "Â": 120,
      "Ã": 121,
      "Ä": 122,
      "Å": 123,
      "Ç": 124,
      "È": 125,
      "É": 126,
      "Î": 127,
      "Ñ": 128,
      "Ó": 129,
      "Ö": 130,
      "×": 131,
      "Ú": 132,
      "Û": 133,
      "Ü": 134,
      "Þ": 135,
      "ß": 136,
      "à": 137,
      "á": 138,
      "â": 139,
      "ã": 140,
      "ä": 141,
      "å": 142,
      "æ": 143,
      "ç": 144,
      "è": 145,
      "é": 146,
      "ê": 147,
      "ë": 148,
      "ì": 149,
      "í": 150,
      "î": 151,
      "ï": 152,
      "ð": 153,
      "ñ": 154,
      "ò": 155,
      "ó": 156,
      "ô": 157,
      "ö": 158,
      "÷": 159,
      "ø": 160,
      "ù": 161,
      "ú": 162,
      "û": 163,
      "ü": 164,
      "ý": 165,
      "þ": 166,
      "ā": 167,
      "ă": 168,
      "ą": 169,
      "ć": 170,
      "č": 171,
      "ē": 172,
      "ė": 173,
      "ę": 174,
      "ě": 175,
      "ğ": 176,
      "ī": 177,
      "İ": 178,
      "ı": 179,
      "ł": 180,
      "ń": 181,
      "ň": 182,
      "Ō": 183,
      "ō": 184,
      "Ő": 185,
      "œ": 186,
      "ř": 187,
      "Ś": 188,
      "ś": 189,
      "Ş": 190,
      "ş": 191,
      "Š": 192,
      "š": 193,
      "ū": 194,
      "ů": 195,
      "Ż": 196,
      "ż": 197,
      "ž": 198,
      "ǎ": 199,
      "ǐ": 200,
      "ǔ": 201,
      "ǜ": 202,
      "ț": 203,
      "ə": 204,
      "ʻ": 205,
      "̄": 206,
      "Δ": 207,
      "Λ": 208,
      "Σ": 209,
      "Φ": 210,
      "Ω": 211,
      "ά": 212,
      "ή": 213,
      "ί": 214,
      "α": 215,
      "β": 216,
      "γ": 217,
      "δ": 218,
      "ε": 219,
      "θ": 220,
      "ι": 221,
      "κ": 222,
      "λ": 223,
      "μ": 224,
      "ο": 225,
      "π": 226,
      "ρ": 227,
      "ς": 228,
      "σ": 229,
      "υ": 230,
      "φ": 231,
      "χ": 232,
      "ψ": 233,
      "ω": 234,
      "ύ": 235,
      "М": 236,
      "П": 237,
      "а": 238,
      "г": 239,
      "е": 240,
      "и": 241,
      "р": 242,
      "с": 243,
      "т": 244,
      "ا": 245,
      "ت": 246,
      "ر": 247,
      "ز": 248,
      "ش": 249,
      "ض": 250,
      "ع": 251,
      "ق": 252,
      "ل": 253,
      "ن": 254,
      "و": 255,
      "ي": 256,
      "پ": 257,
      "ग": 258,
      "प": 259,
      "य": 260,
      "ो": 261,
      "க": 262,
      "த": 263,
      "ப": 264,
      "ற": 265,
      "ள": 266,
      "வ": 267,
      "ு": 268,
      "ெ": 269,
      "ொ": 270,
      "்": 271,
      "ಪ": 272,
      "฿": 273,
      "ḷ": 274,
      "ố": 275,
      "‒": 276,
      "–": 277,
      "—": 278,
      "―": 279,
      "‖": 280,
      "’": 281,
      "“": 282,
      "”": 283,
      "•": 284,
      "…": 285,
      "‰": 286,
      "′": 287,
      "⁄": 288,
      "⁶": 289,
      "⁻": 290,
      "₁": 291,
      "₂": 292,
      "₃": 293,
      "₆": 294,
      "€": 295,
      "ℏ": 296,
      "ℓ": 297,
      "™": 298,
      "⅗": 299,
      "→": 300,
      "∂": 301,
      "∃": 302,
      "∇": 303,
      "∈": 304,
      "∑": 305,
      "−": 306,
      "√": 307,
      "∛": 308,
      "∝": 309,
      "∞": 310,
      "∠": 311,
      "∧": 312,
      "∨": 313,
      "∩": 314,
      "∫": 315,
      "∬": 316,
      "∼": 317,
      "≈": 318,
      "≠": 319,
      "≤": 320,
      "≥": 321,
      "⊕": 322,
      "⊥": 323,
      "⋅": 324,
      "⟨": 325,
      "⟩": 326,
      "🌼": 327,
      "🎸": 328,
      "💛": 329,
      "💫": 330,
      "😊": 331,
      "😜": 332,
      "🤩": 333,
      "th": 334,
      "in": 335,
      "er": 336,
      "an": 337,
      "on": 338,
      "the": 339,
      "en": 340,
      "re": 341,
      "at": 342,
      "st": 343,
      "ing": 344,
      "ed": 345,
      "or": 346,
      "ou": 347,
      "es": 348,
      "al": 349,
      "ar": 350,
      "to": 351,
      "and": 352,
      "it": 353,
      "is": 354,
      "of": 355,
      "he": 356,
      "as": 357,
      "ic": 358,
      "le": 359,
      "om": 360,
      "ion": 361,
      "ac": 362,
      "se": 363,
      "**": 364,
      "ent": 365,
      "il": 366,
      "ow": 367,
      "el": 368,
      "be": 369,
      "de": 370,
      "ch": 371,
      "gh": 372,
      "am": 373,
      "for": 374,
      "li": 375,
      "ve": 376,
      "wi": 377,
      "The": 378,
      "ad": 379,
      "wh": 380,
      "ol": 381,
      "un": 382,
      "with": 383,
      "ri": 384,
      "that": 385,
      "ir": 386,
      "ver": 387,
      "im": 388,
      "ly": 389,
      "ro": 390,
      "ct": 391,
      "ay": 392,
      "ex": 393,
      "ab": 394,
      "ation": 395,
      "ge": 396,
      "ke": 397,
      "ce": 398,
      "ut": 399,
      "ter": 400,
      "her": 401,
      "us": 402,
      "con": 403,
      "ur": 404,
      "lo": 405,
      "id": 406,
      "art": 407,
      "nd": 408,
      "out": 409,
      "was": 410,
      "ap": 411,
      "ght": 412,
      "em": 413,
      "ot": 414,
      "you": 415,
      "sp": 416,
      "per": 417,
      "sh": 418,
      "end": 419,
      "ther": 420,
      "com": 421,
      "fe": 422,
      "ne": 423,
      "ul": 424,
      "all": 425,
      "mo": 426,
      "ity": 427,
      "tr": 428,
      "we": 429,
      "ate": 430,
      "ma": 431,
      "ess": 432,
      "are": 433,
      "fr": 434,
      "ure": 435,
      "his": 436,
      "pl": 437,
      "me": 438,
      "ld": 439,
      "ound": 440,
      "di": 441,
      "op": 442,
      "ust": 443,
      "od": 444,
      "ci": 445,
      "ome": 446,
      "um": 447,
      "ill": 448,
      "si": 449,
      "wor": 450,
      "our": 451,
      "ue": 452,
      "one": 453,
      "ere": 454,
      "pro": 455,
      "from": 456,
      "et": 457,
      "ers": 458,
      "ind": 459,
      "ep": 460,
      "ant": 461,
      "their": 462,
      "ain": 463,
      "ag": 464,
      "res": 465,
      "ice": 466,
      "ies": 467,
      "this": 468,
      "up": 469,
      "gr": 470,
      "by": 471,
      "ack": 472,
      "cre": 473,
      "ast": 474,
      "king": 475,
      "like": 476,
      "**:": 477,
      "some": 478,
      "..": 479,
      "so": 480,
      "av": 481,
      "start": 482,
      "pe": 483,
      "ment": 484,
      "about": 485,
      "act": 486,
      "my": 487,
      "but": 488,
      "ev": 489,
      "own": 490,
      "she": 491,
      "over": 492,
      "if": 493,
      "qu": 494,
      "str": 495,
      "had": 496,
      "te": 497,
      "into": 498,
      "they": 499,
      "ight": 500,
      "As": 501,
      "ist": 502,
      "fo": 503,
      "ould": 504,
      ".\"": 505,
      "tim": 506,
      "der": 507,
      "ame": 508,
      "rou": 509,
      "In": 510,
      "its": 511,
      "ave": 512,
      "ions": 513,
      "ig": 514,
      "can": 515,
      "ence": 516,
      "ical": 517,
      "ive": 518,
      "ts": 519,
      "ard": 520,
      "ok": 521,
      "ous": 522,
      "ell": 523,
      "ple": 524,
      "not": 525,
      "ach": 526,
      "thing": 527,
      "Th": 528,
      "age": 529,
      "iz": 530,
      "ace": 531,
      "os": 532,
      "ance": 533,
      "su": 534,
      "ie": 535,
      "ine": 536,
      "cl": 537,
      "rough": 538,
      "way": 539,
      ".<": 540,
      "ong": 541,
      "just": 542,
      "Wh": 543,
      "ory": 544,
      "ans": 545,
      "ost": 546,
      "au": 547,
      "other": 548,
      "cr": 549,
      "low": 550,
      "through": 551,
      "sel": 552,
      "any": 553,
      "them": 554,
      "spe": 555,
      "bo": 556,
      "able": 557,
      "ck": 558,
      "ey": 559,
      "ark": 560,
      "your": 561,
      "ood": 562,
      "dis": 563,
      "iv": 564,
      "bl": 565,
      "ever": 566,
      "ear": 567,
      "old": 568,
      "pr": 569,
      "It": 570,
      "day": 571,
      "more": 572,
      "where": 573,
      "sa": 574,
      "int": 575,
      "who": 576,
      "have": 577,
      "uest": 578,
      "cont": 579,
      "no": 580,
      "\":": 581,
      "ating": 582,
      "]:": 583,
      "ily": 584,
      "what": 585,
      "sc": 586,
      "ite": 587,
      "St": 588,
      "ated": 589,
      "ak": 590,
      "ud": 591,
      "enc": 592,
      "form": 593,
      "time": 594,
      "sm": 595,
      "ef": 596,
      "do": 597,
      "br": 598,
      "ort": 599,
      "Em": 600,
      "fore": 601,
      "ning": 602,
      "ip": 603,
      "ang": 604,
      "now": 605,
      "oun": 606,
      "self": 607,
      "sy": 608,
      "ations": 609,
      "ual": 610,
      "ra": 611,
      "pt": 612,
      "fect": 613,
      "des": 614,
      "ire": 615,
      "led": 616,
      "new": 617,
      "ial": 618,
      "ful": 619,
      "pres": 620,
      "world": 621,
      "ext": 622,
      "ff": 623,
      "ents": 624,
      "And": 625,
      "back": 626,
      "--": 627,
      "ens": 628,
      "ph": 629,
      "ake": 630,
      "ia": 631,
      "We": 632,
      "air": 633,
      "him": 634,
      "pre": 635,
      "ass": 636,
      "ile": 637,
      "00": 638,
      "eyes": 639,
      "co": 640,
      "...": 641,
      "light": 642,
      "ich": 643,
      "This": 644,
      "She": 645,
      "been": 646,
      "were": 647,
      "cial": 648,
      "ser": 649,
      "ide": 650,
      ",\"": 651,
      "ction": 652,
      "feel": 653,
      "den": 654,
      "wat": 655,
      "vel": 656,
      "fl": 657,
      "under": 658,
      "come": 659,
      "exper": 660,
      "He": 661,
      "ble": 662,
      "gre": 663,
      "ting": 664,
      "ms": 665,
      "Host": 666,
      "when": 667,
      "But": 668,
      "play": 669,
      ":**": 670,
      "ary": 671,
      "tre": 672,
      "inter": 673,
      "ved": 674,
      "oft": 675,
      "ks": 676,
      "get": 677,
      "ult": 678,
      "igh": 679,
      "fri": 680,
      "What": 681,
      "gn": 682,
      "comp": 683,
      "gy": 684,
      "these": 685,
      "ely": 686,
      "has": 687,
      "hel": 688,
      "ature": 689,
      "stand": 690,
      "po": 691,
      "cho": 692,
      "friend": 693,
      "part": 694,
      "real": 695,
      "there": 696,
      "ious": 697,
      "af": 698,
      "something": 699,
      "ness": 700,
      "ath": 701,
      "imp": 702,
      "est": 703,
      "ked": 704,
      "read": 705,
      "every": 706,
      "would": 707,
      "ase": 708,
      "night": 709,
      "ild": 710,
      "here": 711,
      "word": 712,
      "comm": 713,
      "ition": 714,
      "heart": 715,
      "said": 716,
      "ish": 717,
      "even": 718,
      "how": 719,
      "\",": 720,
      "20": 721,
      "off": 722,
      "ned": 723,
      "whis": 724,
      "ll": 725,
      "ber": 726,
      "ling": 727,
      "side": 728,
      "down": 729,
      "plo": 730,
      "vo": 731,
      "seem": 732,
      "ors": 733,
      "whisper": 734,
      "ense": 735,
      "beg": 736,
      "sing": 737,
      "let": 738,
      "du": 739,
      "ves": 740,
      "eng": 741,
      "hum": 742,
      "see": 743,
      "ics": 744,
      "col": 745,
      "ange": 746,
      "elt": 747,
      "ped": 748,
      "set": 749,
      "ener": 750,
      "which": 751,
      "rel": 752,
      "go": 753,
      "ick": 754,
      "sk": 755,
      "cess": 756,
      "ster": 757,
      "lear": 758,
      "right": 759,
      "call": 760,
      "could": 761,
      "sur": 762,
      "around": 763,
      "arr": 764,
      "bre": 765,
      "tow": 766,
      "arm": 767,
      "Ex": 768,
      "Pr": 769,
      "wo": 770,
      "ty": 771,
      "ities": 772,
      "ink": 773,
      "life": 774,
      "son": 775,
      "felt": 776,
      "bet": 777,
      "fin": 778,
      "man": 779,
      "tur": 780,
      "used": 781,
      "ople": 782,
      "olo": 783,
      "Con": 784,
      "year": 785,
      "ict": 786,
      "oc": 787,
      "story": 788,
      "mom": 789,
      "anc": 790,
      "aw": 791,
      "tal": 792,
      "vent": 793,
      "ss": 794,
      "fol": 795,
      "ample": 796,
      "Guest": 797,
      "ings": 798,
      "jo": 799,
      "ene": 800,
      "vie": 801,
      "):": 802,
      "than": 803,
      "Emily": 804,
      "ft": 805,
      "ref": 806,
      "ise": 807,
      "They": 808,
      "cor": 809,
      "diff": 810,
      "IN": 811,
      "experi": 812,
      "each": 813,
      "Ch": 814,
      "ates": 815,
      "19": 816,
      "most": 817,
      "hy": 818,
      "You": 819,
      "found": 820,
      "ars": 821,
      "pos": 822,
      "lect": 823,
      "thou": 824,
      "sound": 825,
      "will": 826,
      "clo": 827,
      "stru": 828,
      "wal": 829,
      "know": 830,
      "also": 831,
      "fir": 832,
      "seemed": 833,
      "ences": 834,
      "mer": 835,
      "cover": 836,
      "gu": 837,
      "An": 838,
      "face": 839,
      "ving": 840,
      "people": 841,
      "ount": 842,
      "app": 843,
      "ular": 844,
      "ying": 845,
      "pow": 846,
      "sign": 847,
      "That": 848,
      "cur": 849,
      "##": 850,
      "effect": 851,
      "ility": 852,
      "bu": 853,
      "rite": 854,
      "att": 855,
      "ond": 856,
      "made": 857,
      "fi": 858,
      "high": 859,
      "land": 860,
      "min": 861,
      "differ": 862,
      "**[": 863,
      "ys": 864,
      "hand": 865,
      "stem": 866,
      "explo": 867,
      "ax": 868,
      "Re": 869,
      "ose": 870,
      "dark": 871,
      "sense": 872,
      "only": 873,
      "ative": 874,
      "vid": 875,
      "before": 876,
      "usic": 877,
      "within": 878,
      "ific": 879,
      "often": 880,
      "ail": 881,
      "stre": 882,
      "Step": 883,
      "ree": 884,
      "Name": 885,
      "ect": 886,
      "mind": 887,
      "ential": 888,
      "gether": 889,
      "being": 890,
      "arch": 891,
      "atter": 892,
      "ship": 893,
      "look": 894,
      "sun": 895,
      "fam": 896,
      "wind": 897,
      "char": 898,
      "ween": 899,
      "cient": 900,
      "az": 901,
      "quest": 902,
      "called": 903,
      "cast": 904,
      "wood": 905,
      "small": 906,
      "),": 907,
      "voice": 908,
      "thought": 909,
      "cent": 910,
      "long": 911,
      "Price": 912,
      "between": 913,
      "beh": 914,
      "follow": 915,
      "?\"": 916,
      "__": 917,
      "ows": 918,
      "Write": 919,
      "city": 920,
      "power": 921,
      "les": 922,
      "mem": 923,
      "vis": 924,
      "red": 925,
      "ared": 926,
      "val": 927,
      "need": 928,
      "human": 929,
      "vers": 930,
      "wer": 931,
      "less": 932,
      "ner": 933,
      "using": 934,
      "ert": 935,
      "two": 936,
      "began": 937,
      "help": 938,
      "still": 939,
      "step": 940,
      "cap": 941,
      "work": 942,
      "ross": 943,
      "find": 944,
      "ional": 945,
      "list": 946,
      "TO": 947,
      "feeling": 948,
      "amp": 949,
      "secre": 950,
      "aking": 951,
      "understand": 952,
      "pri": 953,
      "ush": 954,
      "first": 955,
      "ways": 956,
      "incl": 957,
      "10": 958,
      "How": 959,
      "watch": 960,
      "ized": 961,
      "left": 962,
      "comple": 963,
      "then": 964,
      "ather": 965,
      "again": 966,
      "book": 967,
      "lex": 968,
      "friends": 969,
      "ories": 970,
      "ns": 971,
      "sed": 972,
      "ony": 973,
      "acter": 974,
      "nam": 975,
      "together": 976,
      "che": 977,
      "ry": 978,
      "emot": 979,
      "got": 980,
      "ith": 981,
      "ted": 982,
      "Here": 983,
      "moment": 984,
      "hist": 985,
      "ering": 986,
      "love": 987,
      "``": 988,
      "different": 989,
      "ures": 990,
      "pect": 991,
      "lit": 992,
      "Sound": 993,
      "hid": 994,
      "cit": 995,
      "speci": 996,
      "ng": 997,
      "cus": 998,
      "making": 999,
      "del": 1000,
      "gg": 1001,
      "mag": 1002,
      "dev": 1003,
      "make": 1004,
      "Fr": 1005,
      "tri": 1006,
      "fic": 1007,
      "Com": 1008,
      "als": 1009,
      "use": 1010,
      "system": 1011,
      "alth": 1012,
      "take": 1013,
      "ded": 1014,
      "ER": 1015,
      "ally": 1016,
      "pol": 1017,
      "port": 1018,
      "head": 1019,
      "vide": 1020,
      "character": 1021,
      "sol": 1022,
      "stud": 1023,
      "Alex": 1024,
      "deep": 1025,
      "sid": 1026,
      "while": 1027,
      "aving": 1028,
      "across": 1029,
      "aut": 1030,
      "expl": 1031,
      "mean": 1032,
      "place": 1033,
      "years": 1034,
      "Mar": 1035,
      "appro": 1036,
      "sion": 1037,
      "did": 1038,
      "cri": 1039,
      "tech": 1040,
      "ins": 1041,
      "ards": 1042,
      "uni": 1043,
      "very": 1044,
      "water": 1045,
      "ian": 1046,
      "var": 1047,
      "Ka": 1048,
      "mon": 1049,
      "ural": 1050,
      "vol": 1051,
      "ade": 1052,
      "!\"": 1053,
      "those": 1054,
      "home": 1055,
      "cond": 1056,
      "Loc": 1057,
      "ices": 1058,
      "upon": 1059,
      "`.<": 1060,
      "cal": 1061,
      "hidden": 1062,
      "incre": 1063,
      "team": 1064,
      "ments": 1065,
      "think": 1066,
      "Se": 1067,
      "happ": 1068,
      "uring": 1069,
      "uri": 1070,
      "knew": 1071,
      "well": 1072,
      "kn": 1073,
      "fun": 1074,
      "ered": 1075,
      "experience": 1076,
      "might": 1077,
      "dec": 1078,
      "grow": 1079,
      "game": 1080,
      "dat": 1081,
      "clear": 1082,
      "?<": 1083,
      "gent": 1084,
      "person": 1085,
      "stood": 1086,
      "dist": 1087,
      "bel": 1088,
      "ara": 1089,
      "wr": 1090,
      "lead": 1091,
      "Location": 1092,
      "ement": 1093,
      "itle": 1094,
      "UT": 1095,
      "ob": 1096,
      "conne": 1097,
      "pass": 1098,
      "behind": 1099,
      "plan": 1100,
      "many": 1101,
      "after": 1102,
      "ese": 1103,
      "resp": 1104,
      "med": 1105,
      "partic": 1106,
      "dri": 1107,
      "que": 1108,
      "iting": 1109,
      "ash": 1110,
      "ened": 1111,
      "To": 1112,
      "reg": 1113,
      "deb": 1114,
      "such": 1115,
      "mat": 1116,
      "care": 1117,
      "Example": 1118,
      "ject": 1119,
      "One": 1120,
      "excit": 1121,
      "]**": 1122,
      "cin": 1123,
      "must": 1124,
      "mar": 1125,
      "ode": 1126,
      "commun": 1127,
      "AR": 1128,
      "spect": 1129,
      "known": 1130,
      "par": 1131,
      "dr": 1132,
      "context": 1133,
      "came": 1134,
      "complex": 1135,
      "ology": 1136,
      "ven": 1137,
      "away": 1138,
      "answer": 1139,
      "lim": 1140,
      "music": 1141,
      "vill": 1142,
      "ign": 1143,
      "tle": 1144,
      "forest": 1145,
      "view": 1146,
      "Pro": 1147,
      "sent": 1148,
      "round": 1149,
      "ney": 1150,
      "scene": 1151,
      "table": 1152,
      "young": 1153,
      "Jack": 1154,
      "sive": 1155,
      "---": 1156,
      "bal": 1157,
      "ancient": 1158,
      "cau": 1159,
      "ON": 1160,
      "show": 1161,
      "cult": 1162,
      "both": 1163,
      "fil": 1164,
      "next": 1165,
      "thor": 1166,
      "syn": 1167,
      "Jo": 1168,
      "shad": 1169,
      "ident": 1170,
      "So": 1171,
      "times": 1172,
      "techn": 1173,
      "may": 1174,
      "today": 1175,
      "ism": 1176,
      "ket": 1177,
      "illed": 1178,
      "Tim": 1179,
      "top": 1180,
      "\"**": 1181,
      "sup": 1182,
      "indi": 1183,
      "mis": 1184,
      "won": 1185,
      "Zep": 1186,
      "velop": 1187,
      "apter": 1188,
      "Ne": 1189,
      "dep": 1190,
      "ched": 1191,
      "202": 1192,
      "sub": 1193,
      "rect": 1194,
      "Kael": 1195,
      "ons": 1196,
      "isode": 1197,
      "ove": 1198,
      "ize": 1199,
      "ining": 1200,
      "want": 1201,
      "ape": 1202,
      "Un": 1203,
      "room": 1204,
      "understanding": 1205,
      "took": 1206,
      "signific": 1207,
      "sil": 1208,
      "secrets": 1209,
      "great": 1210,
      "May": 1211,
      "hyr": 1212,
      "Cap": 1213,
      "ourney": 1214,
      "ues": 1215,
      "Dr": 1216,
      "Zephyr": 1217,
      "search": 1218,
      "change": 1219,
      "car": 1220,
      "explore": 1221,
      "With": 1222,
      ").": 1223,
      "discover": 1224,
      "key": 1225,
      "ground": 1226,
      "fire": 1227,
      "social": 1228,
      "tell": 1229,
      "ability": 1230,
      "une": 1231,
      "If": 1232,
      "vir": 1233,
      "Her": 1234,
      "contin": 1235,
      "always": 1236,
      "question": 1237,
      "ames": 1238,
      "ces": 1239,
      "soci": 1240,
      "device": 1241,
      "trans": 1242,
      "ress": 1243,
      "Ly": 1244,
      "appe": 1245,
      "named": 1246,
      "tru": 1247,
      "por": 1248,
      "sum": 1249,
      "space": 1250,
      "individ": 1251,
      "individual": 1252,
      "develop": 1253,
      "energy": 1254,
      "umbl": 1255,
      "wom": 1256,
      "duct": 1257,
      "walked": 1258,
      "fig": 1259,
      "ines": 1260,
      "build": 1261,
      "too": 1262,
      "process": 1263,
      "includ": 1264,
      "should": 1265,
      "ping": 1266,
      "data": 1267,
      "coun": 1268,
      "ged": 1269,
      "family": 1270,
      "bas": 1271,
      "cept": 1272,
      "iness": 1273,
      "various": 1274,
      "trees": 1275,
      "town": 1276,
      "oking": 1277,
      "aring": 1278,
      "Qu": 1279,
      "For": 1280,
      "sat": 1281,
      "ric": 1282,
      "single": 1283,
      "inform": 1284,
      "ets": 1285,
      "open": 1286,
      "ore": 1287,
      "wa": 1288,
      "augh": 1289,
      "add": 1290,
      "smil": 1291,
      "try": 1292,
      "oup": 1293,
      "ically": 1294,
      "lies": 1295,
      "ency": 1296,
      "another": 1297,
      "Emma": 1298,
      "advent": 1299,
      "someone": 1300,
      "approach": 1301,
      "oring": 1302,
      "ze": 1303,
      "atures": 1304,
      "narr": 1305,
      "stars": 1306,
      "say": 1307,
      "seen": 1308,
      "hour": 1309,
      "ward": 1310,
      "ste": 1311,
      "},": 1312,
      "particular": 1313,
      "ubl": 1314,
      "run": 1315,
      "point": 1316,
      "soft": 1317,
      "debate": 1318,
      "contr": 1319,
      "beat": 1320,
      "fac": 1321,
      "gen": 1322,
      "olog": 1323,
      "bed": 1324,
      "My": 1325,
      "ude": 1326,
      "turned": 1327,
      "ending": 1328,
      "Lyra": 1329,
      "reach": 1330,
      "never": 1331,
      "Ar": 1332,
      "group": 1333,
      "gentle": 1334,
      "ator": 1335,
      "ational": 1336,
      "history": 1337,
      "ages": 1338,
      "mor": 1339,
      "don": 1340,
      "special": 1341,
      "struct": 1342,
      "sim": 1343,
      "itself": 1344,
      "example": 1345,
      "raw": 1346,
      "Dev": 1347,
      "gest": 1348,
      "ced": 1349,
      "prom": 1350,
      "IC": 1351,
      "RO": 1352,
      "synony": 1353,
      "elcome": 1354,
      "health": 1355,
      "CUT": 1356,
      "gl": 1357,
      "ouse": 1358,
      "fact": 1359,
      "sit": 1360,
      "ateg": 1361,
      "eper": 1362,
      "journey": 1363,
      "war": 1364,
      "put": 1365,
      "ples": 1366,
      "12": 1367,
      "last": 1368,
      "chapter": 1369,
      "listen": 1370,
      "unt": 1371,
      "does": 1372,
      "specific": 1373,
      "against": 1374,
      "sure": 1375,
      "ND": 1376,
      "ream": 1377,
      "tern": 1378,
      "myster": 1379,
      "couldn": 1380,
      "io": 1381,
      "flow": 1382,
      "grap": 1383,
      "audi": 1384,
      "iet": 1385,
      "hor": 1386,
      "beaut": 1387,
      "looked": 1388,
      "akes": 1389,
      "Title": 1390,
      "These": 1391,
      "Me": 1392,
      "ality": 1393,
      "joy": 1394,
      "Al": 1395,
      "viron": 1396,
      "spir": 1397,
      "Sp": 1398,
      "ited": 1399,
      "cour": 1400,
      "term": 1401,
      "line": 1402,
      "good": 1403,
      "eld": 1404,
      "food": 1405,
      "figure": 1406,
      "pod": 1407,
      "woman": 1408,
      "ately": 1409,
      "essential": 1410,
      "village": 1411,
      "series": 1412,
      "darkness": 1413,
      "warm": 1414,
      "Ah": 1415,
      "others": 1416,
      "significant": 1417,
      "chang": 1418,
      "wonder": 1419,
      "woods": 1420,
      "asure": 1421,
      "looking": 1422,
      "saw": 1423,
      "child": 1424,
      "ten": 1425,
      "ung": 1426,
      "laugh": 1427,
      "ope": 1428,
      "ord": 1429,
      "ix": 1430,
      "nod": 1431,
      "ution": 1432,
      "INT": 1433,
      "$$": 1434,
      "DE": 1435,
      "ually": 1436,
      "kind": 1437,
      "whispered": 1438,
      "ished": 1439,
      "flu": 1440,
      "without": 1441,
      "words": 1442,
      "discus": 1443,
      "cer": 1444,
      "above": 1445,
      "surround": 1446,
      "ru": 1447,
      "bus": 1448,
      "hold": 1449,
      "path": 1450,
      "podcast": 1451,
      "Welcome": 1452,
      "going": 1453,
      "lack": 1454,
      "magic": 1455,
      "Than": 1456,
      "count": 1457,
      "stumbl": 1458,
      "ances": 1459,
      "By": 1460,
      "towards": 1461,
      "ody": 1462,
      "interest": 1463,
      "US": 1464,
      "lay": 1465,
      "consid": 1466,
      "ascin": 1467,
      "novel": 1468,
      "Well": 1469,
      "hours": 1470,
      "atic": 1471,
      "close": 1472,
      "shadows": 1473,
      "DA": 1474,
      "fre": 1475,
      "curi": 1476,
      "ublic": 1477,
      "grew": 1478,
      "aim": 1479,
      "selves": 1480,
      "mu": 1481,
      "move": 1482,
      "rid": 1483,
      "big": 1484,
      "cause": 1485,
      "chall": 1486,
      "fascin": 1487,
      "reat": 1488,
      "present": 1489,
      "import": 1490,
      "conom": 1491,
      "aves": 1492,
      "heard": 1493,
      "keep": 1494,
      "Le": 1495,
      "invol": 1496,
      "ants": 1497,
      "taking": 1498,
      "De": 1499,
      "alls": 1500,
      "trying": 1501,
      ")\":": 1502,
      "From": 1503,
      "Ear": 1504,
      "ization": 1505,
      "lived": 1506,
      "environ": 1507,
      "pop": 1508,
      "door": 1509,
      "sci": 1510,
      "respon": 1511,
      "ho": 1512,
      "emotional": 1513,
      "New": 1514,
      "EC": 1515,
      "comes": 1516,
      "gan": 1517,
      "denly": 1518,
      "students": 1519,
      "stor": 1520,
      "descri": 1521,
      "anced": 1522,
      "expert": 1523,
      "following": 1524,
      "share": 1525,
      "mark": 1526,
      "plic": 1527,
      "ired": 1528,
      "ria": 1529,
      "anim": 1530,
      "things": 1531,
      "ones": 1532,
      "create": 1533,
      "including": 1534,
      "expres": 1535,
      "past": 1536,
      "bro": 1537,
      "film": 1538,
      "Be": 1539,
      "lost": 1540,
      "spark": 1541,
      "draw": 1542,
      "thr": 1543,
      "ST": 1544,
      "11": 1545,
      "uck": 1546,
      ">**": 1547,
      "connect": 1548,
      "equ": 1549,
      "asked": 1550,
      "action": 1551,
      "uc": 1552,
      "movie": 1553,
      "emer": 1554,
      "stumbled": 1555,
      "glow": 1556,
      "ital": 1557,
      "Rating": 1558,
      "Mr": 1559,
      "sin": 1560,
      "test": 1561,
      "rest": 1562,
      "```": 1563,
      "mak": 1564,
      "Ro": 1565,
      "tem": 1566,
      "(%": 1567,
      "name": 1568,
      "tect": 1569,
      "exam": 1570,
      "relation": 1571,
      "once": 1572,
      "pot": 1573,
      "uses": 1574,
      "during": 1575,
      "chool": 1576,
      ".,": 1577,
      "sn": 1578,
      "leg": 1579,
      "lock": 1580,
      "itions": 1581,
      "excitement": 1582,
      "didn": 1583,
      "lip": 1584,
      "stories": 1585,
      "ale": 1586,
      "effects": 1587,
      "deeper": 1588,
      "synonyms": 1589,
      "incredi": 1590,
      "lang": 1591,
      "18": 1592,
      "EN": 1593,
      "bur": 1594,
      "Au": 1595,
      "along": 1596,
      "Maya": 1597,
      "vest": 1598,
      "Tr": 1599,
      "refers": 1600,
      "ills": 1601,
      "avig": 1602,
      "sky": 1603,
      "ready": 1604,
      "ined": 1605,
      "true": 1606,
      "house": 1607,
      "ali": 1608,
      "ertain": 1609,
      "mental": 1610,
      "30": 1611,
      "uel": 1612,
      "ery": 1613,
      "whispers": 1614,
      "avor": 1615,
      "aur": 1616,
      "started": 1617,
      "ah": 1618,
      "When": 1619,
      "ffect": 1620,
      "breath": 1621,
      "ries": 1622,
      "Sh": 1623,
      "ica": 1624,
      "ths": 1625,
      "ub": 1626,
      "SK": 1627,
      "Some": 1628,
      "provid": 1629,
      "cle": 1630,
      "trad": 1631,
      "14": 1632,
      "filled": 1633,
      "TH": 1634,
      "pur": 1635,
      "gener": 1636,
      "much": 1637,
      "fascinating": 1638,
      "usion": 1639,
      "termin": 1640,
      "Effect": 1641,
      "event": 1642,
      "ann": 1643,
      "However": 1644,
      "Jake": 1645,
      "little": 1646,
      "fron": 1647,
      "DAY": 1648,
      "exts": 1649,
      "avel": 1650,
      "una": 1651,
      "mil": 1652,
      "Comp": 1653,
      "cat": 1654,
      "navig": 1655,
      "On": 1656,
      "strong": 1657,
      "SKU": 1658,
      "aint": 1659,
      "verse": 1660,
      "econom": 1661,
      "ives": 1662,
      "exist": 1663,
      "best": 1664,
      "sist": 1665,
      "relationship": 1666,
      "impact": 1667,
      "ches": 1668,
      "actions": 1669,
      "text": 1670,
      "ili": 1671,
      "smile": 1672,
      "unique": 1673,
      "herself": 1674,
      "sight": 1675,
      "loc": 1676,
      "met": 1677,
      "societ": 1678,
      "pract": 1679,
      "quick": 1680,
      "swe": 1681,
      "member": 1682,
      "icate": 1683,
      "smiled": 1684,
      "His": 1685,
      "ote": 1686,
      "thin": 1687,
      "tree": 1688,
      "ior": 1689,
      "conf": 1690,
      "15": 1691,
      "video": 1692,
      "lar": 1693,
      "Luna": 1694,
      "EX": 1695,
      "ECT": 1696,
      "mult": 1697,
      "turn": 1698,
      "perform": 1699,
      "forward": 1700,
      "prof": 1701,
      "AC": 1702,
      "era": 1703,
      "El": 1704,
      "aspect": 1705,
      "outside": 1706,
      "rain": 1707,
      "strange": 1708,
      "loved": 1709,
      "letter": 1710,
      "reve": 1711,
      "camp": 1712,
      "Music": 1713,
      "sou": 1714,
      "level": 1715,
      "ron": 1716,
      "phys": 1717,
      "become": 1718,
      "control": 1719,
      "opt": 1720,
      "inst": 1721,
      "incredible": 1722,
      "moon": 1723,
      "contexts": 1724,
      "City": 1725,
      "Max": 1726,
      "class": 1727,
      "Ry": 1728,
      "tail": 1729,
      "fully": 1730,
      "expect": 1731,
      "AS": 1732,
      "themselves": 1733,
      "decis": 1734,
      "13": 1735,
      "three": 1736,
      "strugg": 1737,
      "sever": 1738,
      "rop": 1739,
      "Gen": 1740,
      "hair": 1741,
      "author": 1742,
      "ination": 1743,
      "aly": 1744,
      "sequ": 1745,
      "among": 1746,
      "aged": 1747,
      "watching": 1748,
      "ris": 1749,
      "ley": 1750,
      "overn": 1751,
      "000": 1752,
      "adv": 1753,
      "pli": 1754,
      "va": 1755,
      "host": 1756,
      "Ad": 1757,
      "ror": 1758,
      "organ": 1759,
      "vi": 1760,
      "Fin": 1761,
      "Co": 1762,
      "near": 1763,
      "iver": 1764,
      "everyone": 1765,
      "iction": 1766,
      "serv": 1767,
      "realized": 1768,
      "ivity": 1769,
      "leaving": 1770,
      "sible": 1771,
      "ason": 1772,
      "Amer": 1773,
      "himself": 1774,
      "stop": 1775,
      "ier": 1776,
      "cam": 1777,
      "determin": 1778,
      "sug": 1779,
      "ran": 1780,
      "personal": 1781,
      "fut": 1782,
      "field": 1783,
      "aging": 1784,
      "anger": 1785,
      "aven": 1786,
      "langu": 1787,
      "Sto": 1788,
      "scri": 1789,
      "ele": 1790,
      "Wor": 1791,
      "ec": 1792,
      "until": 1793,
      "Is": 1794,
      "makes": 1795,
      "themes": 1796,
      "twi": 1797,
      "dream": 1798,
      "allow": 1799,
      "mot": 1800,
      "Device": 1801,
      "fort": 1802,
      "Tom": 1803,
      "invest": 1804,
      "ases": 1805,
      "claim": 1806,
      "meet": 1807,
      "crit": 1808,
      "moder": 1809,
      "ton": 1810,
      "ren": 1811,
      "short": 1812,
      "spot": 1813,
      "acing": 1814,
      "bor": 1815,
      "fur": 1816,
      "sym": 1817,
      "iful": 1818,
      "sens": 1819,
      "coming": 1820,
      "giv": 1821,
      "ribut": 1822,
      "sib": 1823,
      "sounds": 1824,
      "ds": 1825,
      "aining": 1826,
      "James": 1827,
      "hope": 1828,
      "ough": 1829,
      "direct": 1830,
      "echo": 1831,
      "Can": 1832,
      "17": 1833,
      "episode": 1834,
      "perature": 1835,
      "reveal": 1836,
      "ago": 1837,
      "streets": 1838,
      "itional": 1839,
      "safe": 1840,
      "same": 1841,
      "Sud": 1842,
      "Rac": 1843,
      "ike": 1844,
      "num": 1845,
      "25": 1846,
      "late": 1847,
      "review": 1848,
      "break": 1849,
      "Thanks": 1850,
      "elect": 1851,
      "remind": 1852,
      "rip": 1853,
      "Stock": 1854,
      "ains": 1855,
      "potential": 1856,
      "Des": 1857,
      "Mon": 1858,
      "rich": 1859,
      "influ": 1860,
      "went": 1861,
      "def": 1862,
      "Ep": 1863,
      "front": 1864,
      "ican": 1865,
      "waiting": 1866,
      "ised": 1867,
      "aming": 1868,
      "cru": 1869,
      "Suddenly": 1870,
      "bey": 1871,
      "exploring": 1872,
      "sentences": 1873,
      "EXT": 1874,
      "ca": 1875,
      "azing": 1876,
      "nature": 1877,
      "scre": 1878,
      "information": 1879,
      "community": 1880,
      "because": 1881,
      "tale": 1882,
      "grand": 1883,
      "TER": 1884,
      "pie": 1885,
      "ustr": 1886,
      "certain": 1887,
      "tone": 1888,
      "ater": 1889,
      "iss": 1890,
      "arter": 1891,
      "business": 1892,
      "beautiful": 1893,
      "Now": 1894,
      "ench": 1895,
      "characters": 1896,
      "remember": 1897,
      "far": 1898,
      "asing": 1899,
      "ook": 1900,
      "Company": 1901,
      "nodded": 1902,
      "bit": 1903,
      "Rachel": 1904,
      "bright": 1905,
      "ES": 1906,
      "playing": 1907,
      "____": 1908,
      "Black": 1909,
      "itive": 1910,
      "verage": 1911,
      "bir": 1912,
      "actly": 1913,
      "perfect": 1914,
      "beyond": 1915,
      "ieve": 1916,
      "govern": 1917,
      "particularly": 1918,
      "everything": 1919,
      "days": 1920,
      "cing": 1921,
      "Year": 1922,
      "ding": 1923,
      "challeng": 1924,
      "mess": 1925,
      "ption": 1926,
      "There": 1927,
      "ushed": 1928,
      "bri": 1929,
      "Ind": 1930,
      "ient": 1931,
      "16": 1932,
      "requ": 1933,
      "support": 1934,
      "main": 1935,
      "school": 1936,
      "design": 1937,
      "ledge": 1938,
      "oph": 1939,
      "Aria": 1940,
      "arden": 1941,
      "secret": 1942,
      "eye": 1943,
      "ological": 1944,
      "ny": 1945,
      "cry": 1946,
      "Jen": 1947,
      "Sm": 1948,
      "ilities": 1949,
      "refer": 1950,
      "Or": 1951,
      "gue": 1952,
      "]:**": 1953,
      "FA": 1954,
      "High": 1955,
      "inside": 1956,
      "sle": 1957,
      "asy": 1958,
      "ira": 1959,
      "oper": 1960,
      "full": 1961,
      "mic": 1962,
      "SO": 1963,
      "ively": 1964,
      "building": 1965,
      "ended": 1966,
      "stat": 1967,
      "CH": 1968,
      "crow": 1969,
      "agon": 1970,
      "typ": 1971,
      "followed": 1972,
      "experiences": 1973,
      "Echo": 1974,
      "Tell": 1975,
      "AP": 1976,
      "free": 1977,
      "lab": 1978,
      "While": 1979,
      "ek": 1980,
      "proble": 1981,
      "orts": 1982,
      "standing": 1983,
      "company": 1984,
      "solut": 1985,
      "inno": 1986,
      "living": 1987,
      "rather": 1988,
      "iny": 1989,
      "adventure": 1990,
      "individuals": 1991,
      "flo": 1992,
      "No": 1993,
      "Their": 1994,
      "stay": 1995,
      "ased": 1996,
      "maint": 1997,
      "dy": 1998,
      "craf": 1999,
      "Joh": 2000,
      "edge": 2001,
      "Timest": 2002,
      "ctor": 2003,
      "Timestamp": 2004,
      "atural": 2005,
      "sty": 2006,
      "hes": 2007,
      "ify": 2008,
      "product": 2009,
      "math": 2010,
      "twist": 2011,
      "izing": 2012,
      "gather": 2013,
      "black": 2014,
      "yet": 2015,
      "En": 2016,
      "respect": 2017,
      "ech": 2018,
      "station": 2019,
      "inning": 2020,
      "multi": 2021,
      "cul": 2022,
      "ament": 2023,
      "finally": 2024,
      "stone": 2025,
      "master": 2026,
      "shared": 2027,
      "ources": 2028,
      "continu": 2029,
      "since": 2030,
      "John": 2031,
      "acy": 2032,
      "harm": 2033,
      "future": 2034,
      "rele": 2035,
      "favor": 2036,
      "local": 2037,
      "body": 2038,
      "having": 2039,
      "irl": 2040,
      "state": 2041,
      "pul": 2042,
      "tran": 2043,
      "ided": 2044,
      "tune": 2045,
      "preci": 2046,
      "----": 2047,
      "FF": 2048,
      "situ": 2049,
      "Episode": 2050,
      "dom": 2051,
      "myself": 2052,
      "ends": 2053,
      "polit": 2054,
      "case": 2055,
      "concer": 2056,
      "final": 2057,
      "ger": 2058,
      "meaning": 2059,
      "cy": 2060,
      "lying": 2061,
      "role": 2062,
      "memories": 2063,
      "clim": 2064,
      "research": 2065,
      "fee": 2066,
      "better": 2067,
      "tw": 2068,
      "AL": 2069,
      "Ty": 2070,
      "Up": 2071,
      "pose": 2072,
      "nia": 2073,
      "desert": 2074,
      "antic": 2075,
      "Just": 2076,
      "iev": 2077,
      "ists": 2078,
      "systems": 2079,
      "connection": 2080,
      "Genre": 2081,
      "crucial": 2082,
      "stead": 2083,
      "suggest": 2084,
      "ilar": 2085,
      "watched": 2086,
      "FADE": 2087,
      "MUS": 2088,
      "'.<": 2089,
      "offee": 2090,
      "ring": 2091,
      "EL": 2092,
      "onto": 2093,
      "net": 2094,
      "law": 2095,
      "wild": 2096,
      "rol": 2097,
      "scient": 2098,
      "####": 2099,
      "natural": 2100,
      "events": 2101,
      "MUSIC": 2102,
      "cogn": 2103,
      "Who": 2104,
      "histor": 2105,
      "pain": 2106,
      "phas": 2107,
      "nu": 2108,
      "appear": 2109,
      "blo": 2110,
      "zz": 2111,
      "aster": 2112,
      ".)": 2113,
      "silence": 2114,
      "pat": 2115,
      "tra": 2116,
      "narrative": 2117,
      "ming": 2118,
      "surrounded": 2119,
      "several": 2120,
      "comb": 2121,
      "relationships": 2122,
      "peri": 2123,
      "clusion": 2124,
      "fall": 2125,
      "pen": 2126,
      "convers": 2127,
      "ching": 2128,
      "sues": 2129,
      "fer": 2130,
      "growth": 2131,
      "star": 2132,
      "Jess": 2133,
      "ban": 2134,
      "dies": 2135,
      "questions": 2136,
      "Sy": 2137,
      "include": 2138,
      "trust": 2139,
      "graph": 2140,
      "oke": 2141,
      "Gr": 2142,
      "truly": 2143,
      "public": 2144,
      "Hum": 2145,
      "language": 2146,
      "wasn": 2147,
      "tou": 2148,
      "arri": 2149,
      "casting": 2150,
      "Gener": 2151,
      "correct": 2152,
      "vil": 2153,
      "lou": 2154,
      "izon": 2155,
      "iqu": 2156,
      "emotions": 2157,
      "idity": 2158,
      "Earth": 2159,
      "lives": 2160,
      "development": 2161,
      "leave": 2162,
      "Wind": 2163,
      "Mo": 2164,
      "At": 2165,
      "quiet": 2166,
      "Let": 2167,
      "suc": 2168,
      "Val": 2169,
      "produ": 2170,
      "Cali": 2171,
      "sto": 2172,
      "insp": 2173,
      "DB": 2174,
      "based": 2175,
      "morning": 2176,
      "physical": 2177,
      "protect": 2178,
      "gaz": 2179,
      "enjoy": 2180,
      "became": 2181,
      "28": 2182,
      "coffee": 2183,
      "ades": 2184,
      "why": 2185,
      "ises": 2186,
      "aun": 2187,
      "cele": 2188,
      "Califor": 2189,
      "scape": 2190,
      "transform": 2191,
      "knowledge": 2192,
      "few": 2193,
      "means": 2194,
      "bes": 2195,
      "mosp": 2196,
      "HO": 2197,
      "Tem": 2198,
      "Pl": 2199,
      "ied": 2200,
      "mill": 2201,
      "ox": 2202,
      "evening": 2203,
      "collect": 2204,
      "California": 2205,
      "RA": 2206,
      "mary": 2207,
      "girl": 2208,
      "Maria": 2209,
      "lobal": 2210,
      "leaves": 2211,
      "prep": 2212,
      "value": 2213,
      "bi": 2214,
      "tall": 2215,
      "THE": 2216,
      "gold": 2217,
      "technology": 2218,
      "bound": 2219,
      "ams": 2220,
      "Rev": 2221,
      "ading": 2222,
      "issues": 2223,
      "shop": 2224,
      "highlight": 2225,
      "background": 2226,
      "stepped": 2227,
      "nothing": 2228,
      "focus": 2229,
      "World": 2230,
      "ints": 2231,
      "multiple": 2232,
      "commend": 2233,
      "travel": 2234,
      "inary": 2235,
      "hero": 2236,
      "exactly": 2237,
      "creating": 2238,
      "ena": 2239,
      "bers": 2240,
      "forever": 2241,
      "ilt": 2242,
      "related": 2243,
      "reflect": 2244,
      "fear": 2245,
      "bran": 2246,
      "ahead": 2247,
      "concept": 2248,
      "ID": 2249,
      "sett": 2250,
      "dest": 2251,
      "UND": 2252,
      "compan": 2253,
      "eer": 2254,
      "mid": 2255,
      "super": 2256,
      "provide": 2257,
      "walking": 2258,
      "reached": 2259,
      "popular": 2260,
      "importance": 2261,
      "Br": 2262,
      "kept": 2263,
      "Sara": 2264,
      "ium": 2265,
      "ters": 2266,
      "innov": 2267,
      "atmosp": 2268,
      "curr": 2269,
      "engine": 2270,
      "camera": 2271,
      "forget": 2272,
      "project": 2273,
      "wit": 2274,
      "shap": 2275,
      "society": 2276,
      "hands": 2277,
      "ork": 2278,
      "23": 2279,
      "wide": 2280,
      "mix": 2281,
      "alone": 2282,
      "emphas": 2283,
      "choice": 2284,
      "simple": 2285,
      "features": 2286,
      "audio": 2287,
      "consider": 2288,
      "ention": 2289,
      "Oh": 2290,
      "eneath": 2291,
      "walls": 2292,
      "osity": 2293,
      "cultural": 2294,
      "Im": 2295,
      "heav": 2296,
      "mas": 2297,
      "bol": 2298,
      "apped": 2299,
      "imag": 2300,
      "reading": 2301,
      "(%):": 2302,
      "miles": 2303,
      "Spe": 2304,
      "country": 2305,
      "mysterious": 2306,
      "Jax": 2307,
      "foot": 2308,
      "behav": 2309,
      "Sarah": 2310,
      "agement": 2311,
      "reality": 2312,
      "structure": 2313,
      "steps": 2314,
      "continued": 2315,
      "phone": 2316,
      "24": 2317,
      "green": 2318,
      "capt": 2319,
      "impro": 2320,
      "amazing": 2321,
      "thrill": 2322,
      "transp": 2323,
      "intro": 2324,
      "planet": 2325,
      "reson": 2326,
      "pack": 2327,
      "pts": 2328,
      "row": 2329,
      "played": 2330,
      "ening": 2331,
      "hard": 2332,
      "Cor": 2333,
      "IG": 2334,
      "closer": 2335,
      "values": 2336,
      "working": 2337,
      "uis": 2338,
      "discovered": 2339,
      "Red": 2340,
      "plac": 2341,
      "gotten": 2342,
      "second": 2343,
      "challenges": 2344,
      "ats": 2345,
      "surface": 2346,
      "beneath": 2347,
      "sand": 2348,
      "presence": 2349,
      "soul": 2350,
      "Through": 2351,
      "bf": 2352,
      "soon": 2353,
      "really": 2354,
      "desig": 2355,
      "mathbf": 2356,
      "gment": 2357,
      "tic": 2358,
      "function": 2359,
      "Time": 2360,
      "Mrs": 2361,
      "created": 2362,
      "sl": 2363,
      "unning": 2364,
      "Ryan": 2365,
      "ift": 2366,
      "idea": 2367,
      "implies": 2368,
      "attle": 2369,
      "thinking": 2370,
      "culture": 2371,
      "Count": 2372,
      "lean": 2373,
      "access": 2374,
      "Last": 2375,
      "ained": 2376,
      "ried": 2377,
      "force": 2378,
      "curious": 2379,
      "feet": 2380,
      "exp": 2381,
      "ging": 2382,
      "End": 2383,
      "thick": 2384,
      "tegr": 2385,
      "learn": 2386,
      "hood": 2387,
      "relates": 2388,
      "22": 2389,
      "mother": 2390,
      "animals": 2391,
      "audiobook": 2392,
      "due": 2393,
      "oration": 2394,
      "throughout": 2395,
      "strateg": 2396,
      "fell": 2397,
      "approached": 2398,
      "economic": 2399,
      "modern": 2400,
      "intr": 2401,
      "escap": 2402,
      "whispering": 2403,
      "enef": 2404,
      "iced": 2405,
      "matter": 2406,
      "eries": 2407,
      "thoughts": 2408,
      "hint": 2409,
      "York": 2410,
      "hear": 2411,
      "polic": 2412,
      "expression": 2413,
      "ternity": 2414,
      "sequences": 2415,
      "istic": 2416,
      "anyone": 2417,
      "bs": 2418,
      "sweet": 2419,
      "ane": 2420,
      "tered": 2421,
      "further": 2422,
      "rock": 2423,
      "mel": 2424,
      "lease": 2425,
      "takes": 2426,
      "give": 2427,
      "SOUND": 2428,
      "favorite": 2429,
      "patter": 2430,
      "sharing": 2431,
      "telling": 2432,
      "terms": 2433,
      "aurant": 2434,
      "educ": 2435,
      "attery": 2436,
      "inci": 2437,
      "flowers": 2438,
      "dust": 2439,
      "garden": 2440,
      "ument": 2441,
      "tried": 2442,
      "Jameson": 2443,
      "ible": 2444,
      "mal": 2445,
      "spirit": 2446,
      "ires": 2447,
      "ensor": 2448,
      "detail": 2449,
      "balance": 2450,
      "quality": 2451,
      "ension": 2452,
      "visit": 2453,
      "mist": 2454,
      "uro": 2455,
      "EFF": 2456,
      "script": 2457,
      "ACK": 2458,
      "emerged": 2459,
      "curiosity": 2460,
      "unf": 2461,
      "27": 2462,
      "ictor": 2463,
      "minut": 2464,
      "fing": 2465,
      "Elara": 2466,
      "EFFECT": 2467,
      "works": 2468,
      "versity": 2469,
      "Sun": 2470,
      "Pe": 2471,
      "examples": 2472,
      "26": 2473,
      "Gu": 2474,
      "piece": 2475,
      "fab": 2476,
      "ication": 2477,
      "sal": 2478,
      "learning": 2479,
      "listeners": 2480,
      "Off": 2481,
      "speak": 2482,
      "mount": 2483,
      "Don": 2484,
      "song": 2485,
      "40": 2486,
      "2022": 2487,
      "getting": 2488,
      "contribut": 2489,
      "50": 2490,
      "asks": 2491,
      "Echoes": 2492,
      "squ": 2493,
      "ank": 2494,
      "ids": 2495,
      "passion": 2496,
      "empt": 2497,
      "iques": 2498,
      "uisine": 2499,
      "told": 2500,
      "ume": 2501,
      "Night": 2502,
      "ector": 2503,
      "truth": 2504,
      "success": 2505,
      "eerie": 2506,
      "Dat": 2507,
      "Temperature": 2508,
      "redu": 2509,
      "hab": 2510,
      "area": 2511,
      "appreci": 2512,
      "summer": 2513,
      "surpr": 2514,
      "object": 2515,
      "skills": 2516,
      "title": 2517,
      "Star": 2518,
      "compet": 2519,
      "type": 2520,
      "entire": 2521,
      "Shad": 2522,
      "happy": 2523,
      "study": 2524,
      "men": 2525,
      "cos": 2526,
      "fix": 2527,
      "hesit": 2528,
      "Upbeat": 2529,
      "cell": 2530,
      "magical": 2531,
      "ulation": 2532,
      "ungle": 2533,
      "ache": 2534,
      "og": 2535,
      "IGH": 2536,
      "}\\": 2537,
      "meanings": 2538,
      "yes": 2539,
      "impres": 2540,
      "walk": 2541,
      "rup": 2542,
      "environment": 2543,
      "ustom": 2544,
      "bring": 2545,
      "common": 2546,
      "iew": 2547,
      "pet": 2548,
      "sports": 2549,
      "American": 2550,
      "init": 2551,
      "?**": 2552,
      "talk": 2553,
      "writ": 2554,
      "setting": 2555,
      "aste": 2556,
      "abase": 2557,
      "horizon": 2558,
      "LA": 2559,
      "else": 2560,
      "atmosphere": 2561,
      "gall": 2562,
      "idence": 2563,
      "science": 2564,
      "spoke": 2565,
      "creatures": 2566,
      "OR": 2567,
      "plications": 2568,
      "prot": 2569,
      "benef": 2570,
      "jungle": 2571,
      "MI": 2572,
      "ustling": 2573,
      "aken": 2574,
      "tiny": 2575,
      "peace": 2576,
      "drawn": 2577,
      "\".": 2578,
      "comput": 2579,
      "Day": 2580,
      "price": 2581,
      "Dis": 2582,
      "imply": 2583,
      "moments": 2584,
      "eze": 2585,
      "evol": 2586,
      "rist": 2587,
      "talking": 2588,
      "traditional": 2589,
      "growing": 2590,
      "ots": 2591,
      "spent": 2592,
      "immer": 2593,
      "Conne": 2594,
      "spine": 2595,
      "attention": 2596,
      "tro": 2597,
      "rema": 2598,
      "aps": 2599,
      "lik": 2600,
      "threat": 2601,
      "Out": 2602,
      "visual": 2603,
      "given": 2604,
      "boy": 2605,
      "weight": 2606,
      "slight": 2607,
      ")**": 2608,
      "held": 2609,
      "perspect": 2610,
      "cture": 2611,
      "Whis": 2612,
      "respond": 2613,
      "non": 2614,
      "vibr": 2615,
      "connected": 2616,
      "crowd": 2617,
      "Sup": 2618,
      "eth": 2619,
      "anything": 2620,
      "lection": 2621,
      "query": 2622,
      "2023": 2623,
      "plays": 2624,
      "ables": 2625,
      "apt": 2626,
      "itch": 2627,
      "integr": 2628,
      "nings": 2629,
      "decided": 2630,
      "wand": 2631,
      "box": 2632,
      "ods": 2633,
      "IGHT": 2634,
      "protagon": 2635,
      "caught": 2636,
      "ask": 2637,
      "inspired": 2638,
      "faint": 2639,
      "ury": 2640,
      "storm": 2641,
      "ina": 2642,
      "forms": 2643,
      "sw": 2644,
      "running": 2645,
      "symbol": 2646,
      "conve": 2647,
      "dram": 2648,
      "pal": 2649,
      "ager": 2650,
      "fabric": 2651,
      "AT": 2652,
      "oth": 2653,
      "itude": 2654,
      "ategory": 2655,
      "represent": 2656,
      "universe": 2657,
      "pon": 2658,
      "ploy": 2659,
      "pic": 2660,
      "da": 2661,
      "stu": 2662,
      "portun": 2663,
      "tain": 2664,
      "sess": 2665,
      "cepts": 2666,
      "orig": 2667,
      "Hist": 2668,
      "distance": 2669,
      "45": 2670,
      "agre": 2671,
      "realm": 2672,
      "lose": 2673,
      "resources": 2674,
      "breeze": 2675,
      "Review": 2676,
      "confl": 2677,
      "uration": 2678,
      "Af": 2679,
      "unch": 2680,
      "faces": 2681,
      "timately": 2682,
      "Over": 2683,
      "Sensor": 2684,
      "Li": 2685,
      "gal": 2686,
      "35": 2687,
      "sud": 2688,
      "behavior": 2689,
      "campfire": 2690,
      "erial": 2691,
      "29": 2692,
      "track": 2693,
      "2021": 2694,
      "searching": 2695,
      "Dire": 2696,
      "order": 2697,
      "famous": 2698,
      "cha": 2699,
      "Product": 2700,
      "21": 2701,
      "return": 2702,
      "fast": 2703,
      "els": 2704,
      "fresh": 2705,
      "brief": 2706,
      "inner": 2707,
      "antity": 2708,
      "RE": 2709,
      "street": 2710,
      "global": 2711,
      "arg": 2712,
      "stret": 2713,
      "scr": 2714,
      "dition": 2715,
      "stry": 2716,
      "satis": 2717,
      "scan": 2718,
      "firm": 2719,
      "slow": 2720,
      "pite": 2721,
      "tool": 2722,
      "performance": 2723,
      "Col": 2724,
      "arry": 2725,
      "unfold": 2726,
      "below": 2727,
      "inal": 2728,
      "slightly": 2729,
      "anticip": 2730,
      "Narr": 2731,
      "ral": 2732,
      "necess": 2733,
      "skin": 2734,
      "Humidity": 2735,
      "protagonist": 2736,
      "After": 2737,
      "earth": 2738,
      "van": 2739,
      "reli": 2740,
      "sights": 2741,
      "treasure": 2742,
      "market": 2743,
      "Sam": 2744,
      "Once": 2745,
      "ctions": 2746,
      "points": 2747,
      "Ann": 2748,
      "hu": 2749,
      "consequences": 2750,
      "Mean": 2751,
      "opportun": 2752,
      "proper": 2753,
      "iliar": 2754,
      "Tech": 2755,
      "fied": 2756,
      "curity": 2757,
      "liter": 2758,
      "sibility": 2759,
      "powerful": 2760,
      "landscape": 2761,
      "dreams": 2762,
      "intel": 2763,
      "Jessica": 2764,
      "200": 2765,
      "SQ": 2766,
      "Market": 2767,
      "prior": 2768,
      "har": 2769,
      "style": 2770,
      "park": 2771,
      "cost": 2772,
      "onic": 2773,
      "ustain": 2774,
      "humanity": 2775,
      "guid": 2776,
      "conditions": 2777,
      "blue": 2778,
      "topic": 2779,
      "princi": 2780,
      "rad": 2781,
      "CHAP": 2782,
      "Dist": 2783,
      "becomes": 2784,
      "stunning": 2785,
      "conversation": 2786,
      "Rest": 2787,
      "CHAPTER": 2788,
      "custom": 2789,
      "grin": 2790,
      "leading": 2791,
      "Generate": 2792,
      "ength": 2793,
      "nearby": 2794,
      "prepared": 2795,
      "Mike": 2796,
      "inct": 2797,
      "ured": 2798,
      "consum": 2799,
      "Man": 2800,
      "options": 2801,
      "claimed": 2802,
      "vast": 2803,
      "prevent": 2804,
      "justice": 2805,
      "dance": 2806,
      "aid": 2807,
      "material": 2808,
      "affect": 2809,
      "government": 2810,
      "quickly": 2811,
      "national": 2812,
      "nor": 2813,
      "reven": 2814,
      "Ab": 2815,
      "swi": 2816,
      "knowing": 2817,
      "SQL": 2818,
      "Bir": 2819,
      "Soph": 2820,
      "shake": 2821,
      "content": 2822,
      "enced": 2823,
      "effic": 2824,
      "==": 2825,
      "dem": 2826,
      "Eng": 2827,
      "gallons": 2828,
      "describe": 2829,
      "beauty": 2830,
      "aked": 2831,
      "atio": 2832,
      "sych": 2833,
      "clearing": 2834,
      "Ang": 2835,
      "course": 2836,
      "pushed": 2837,
      "Office": 2838,
      "Res": 2839,
      "changed": 2840,
      "smo": 2841,
      "weather": 2842,
      "Narrator": 2843,
      "hot": 2844,
      "already": 2845,
      "possible": 2846,
      "dive": 2847,
      "NIGHT": 2848,
      "Victor": 2849,
      "involves": 2850,
      "message": 2851,
      "decision": 2852,
      "cand": 2853,
      "Thom": 2854,
      "Ver": 2855,
      "AND": 2856,
      "ause": 2857,
      "recor": 2858,
      "indust": 2859,
      "01": 2860,
      "Lev": 2861,
      "specif": 2862,
      "sleep": 2863,
      "fund": 2864,
      "IT": 2865,
      "Do": 2866,
      "excited": 2867,
      "center": 2868,
      "mach": 2869,
      "flash": 2870,
      "narrow": 2871,
      "opening": 2872,
      "live": 2873,
      "worth": 2874,
      "rew": 2875,
      "rece": 2876,
      "thus": 2877,
      "Age": 2878,
      "whole": 2879,
      "branches": 2880,
      "road": 2881,
      "kins": 2882,
      "flick": 2883,
      "cir": 2884,
      "Think": 2885,
      "ware": 2886,
      "Used": 2887,
      "concepts": 2888,
      "Not": 2889,
      "pair": 2890,
      "shape": 2891,
      "Start": 2892,
      "large": 2893,
      "media": 2894,
      "escape": 2895,
      "47": 2896,
      "dent": 2897,
      "inv": 2898,
      "yourself": 2899,
      "und": 2900,
      "unknown": 2901,
      "Wow": 2902,
      "Great": 2903,
      "Sil": 2904,
      "rout": 2905,
      "recogn": 2906,
      "locked": 2907,
      "exas": 2908,
      "important": 2909,
      "color": 2910,
      "sor": 2911,
      "delve": 2912,
      "Wil": 2913,
      "gas": 2914,
      "mur": 2915,
      "oned": 2916,
      "LE": 2917,
      "ource": 2918,
      "familiar": 2919,
      "stock": 2920,
      "navigate": 2921,
      "atency": 2922,
      "actually": 2923,
      "worldly": 2924,
      "Director": 2925,
      "pret": 2926,
      "likely": 2927,
      "determination": 2928,
      "CO": 2929,
      "Car": 2930,
      "readers": 2931,
      "37": 2932,
      "maj": 2933,
      "players": 2934,
      "section": 2935,
      "Public": 2936,
      "spell": 2937,
      "stal": 2938,
      "ival": 2939,
      "clip": 2940,
      "demon": 2941,
      "patterns": 2942,
      "39": 2943,
      "otherworldly": 2944,
      "Our": 2945,
      "48": 2946,
      "sea": 2947,
      "audience": 2948,
      "aver": 2949,
      "mit": 2950,
      "Ava": 2951,
      "tray": 2952,
      "AN": 2953,
      "Rem": 2954,
      "ently": 2955,
      "Cl": 2956,
      "celebr": 2957,
      "enough": 2958,
      "AI": 2959,
      "mine": 2960,
      "passed": 2961,
      "Nor": 2962,
      "writing": 2963,
      "cut": 2964,
      "encoun": 2965,
      "Note": 2966,
      "compass": 2967,
      "Reven": 2968,
      "civil": 2969,
      "cool": 2970,
      "aries": 2971,
      "problem": 2972,
      "36": 2973,
      "fingers": 2974,
      "prog": 2975,
      "Per": 2976,
      "oney": 2977,
      "ib": 2978,
      "purpose": 2979,
      "climate": 2980,
      "needs": 2981,
      "Ed": 2982,
      "38": 2983,
      "aspects": 2984,
      "Trip": 2985,
      "sip": 2986,
      "chest": 2987,
      "treat": 2988,
      "thusi": 2989,
      "mir": 2990,
      "Pho": 2991,
      "decisions": 2992,
      "activ": 2993,
      "istics": 2994,
      "Consid": 2995,
      "apart": 2996,
      "range": 2997,
      "Will": 2998,
      "rought": 2999,
      "farm": 3000,
      "map": 3001,
      "situation": 3002,
      "folks": 3003,
      "wanted": 3004,
      "explored": 3005,
      "dig": 3006,
      "exploration": 3007,
      "mission": 3008,
      "similar": 3009,
      "twisted": 3010,
      "security": 3011,
      "Fuel": 3012,
      "Ident": 3013,
      "transport": 3014,
      "pound": 3015,
      "Level": 3016,
      "199": 3017,
      "erc": 3018,
      "sus": 3019,
      "OUT": 3020,
      "km": 3021,
      "note": 3022,
      "scent": 3023,
      "Und": 3024,
      "ilos": 3025,
      "Mid": 3026,
      "sions": 3027,
      "environmental": 3028,
      "umn": 3029,
      "Type": 3030,
      "enthusi": 3031,
      "Det": 3032,
      "appeared": 3033,
      "Open": 3034,
      "46": 3035,
      "Vol": 3036,
      "friendship": 3037,
      "though": 3038,
      "areas": 3039,
      "increasing": 3040,
      "lines": 3041,
      "primary": 3042,
      "progr": 3043,
      "suit": 3044,
      "employ": 3045,
      "fle": 3046,
      "mystery": 3047,
      "recent": 3048,
      "oid": 3049,
      "critical": 3050,
      "ensure": 3051,
      "directly": 3052,
      "convey": 3053,
      "Battery": 3054,
      "ai": 3055,
      "cold": 3056,
      "Segment": 3057,
      "Act": 3058,
      "historical": 3059,
      "resol": 3060,
      "complexities": 3061,
      "changes": 3062,
      "alys": 3063,
      "effective": 3064,
      "iety": 3065,
      "provo": 3066,
      "ously": 3067,
      "engaging": 3068,
      "04": 3069,
      "raised": 3070,
      "izes": 3071,
      "fying": 3072,
      "wis": 3073,
      "brush": 3074,
      "thread": 3075,
      "calm": 3076,
      "gged": 3077,
      "player": 3078,
      "fuel": 3079,
      "father": 3080,
      "ball": 3081,
      "improve": 3082,
      "II": 3083,
      "reminder": 3084,
      "alive": 3085,
      "ION": 3086,
      "197": 3087,
      "Texas": 3088,
      "forgotten": 3089,
      "Jenkins": 3090,
      "fundament": 3091,
      "streaming": 3092,
      "dict": 3093,
      "whe": 3094,
      "bare": 3095,
      "ler": 3096,
      "plied": 3097,
      "Low": 3098,
      "],": 3099,
      "Connection": 3100,
      "rit": 3101,
      "Dark": 3102,
      "bing": 3103,
      "introdu": 3104,
      "Ap": 3105,
      "alysis": 3106,
      "profess": 3107,
      "conv": 3108,
      "Average": 3109,
      "Sector": 3110,
      "08": 3111,
      "Tod": 3112,
      "orus": 3113,
      "Condition": 3114,
      "taken": 3115,
      "provided": 3116,
      "Hey": 3117,
      "Quarter": 3118,
      "Under": 3119,
      "associ": 3120,
      "198": 3121,
      "early": 3122,
      "number": 3123,
      "Distance": 3124,
      "worn": 3125,
      "Speed": 3126,
      "Pat": 3127,
      "',": 3128,
      "Ret": 3129,
      "dim": 3130,
      "ING": 3131,
      "uncover": 3132,
      "counter": 3133,
      "icult": 3134,
      "shining": 3135,
      "posed": 3136,
      "Value": 3137,
      "ising": 3138,
      "Eternity": 3139,
      "iment": 3140,
      "Second": 3141,
      "Date": 3142,
      "Restaurant": 3143,
      "fit": 3144,
      "period": 3145,
      "Ge": 3146,
      "07": 3147,
      "dynam": 3148,
      "gaze": 3149,
      "continue": 3150,
      "response": 3151,
      "position": 3152,
      "needed": 3153,
      "49": 3154,
      "driving": 3155,
      "edom": 3156,
      "provoking": 3157,
      "agers": 3158,
      "05": 3159,
      "discovery": 3160,
      "strategies": 3161,
      "!<": 3162,
      "eah": 3163,
      "scen": 3164,
      "Ac": 3165,
      "driven": 3166,
      "happened": 3167,
      "check": 3168,
      "abl": 3169,
      "Med": 3170,
      "forces": 3171,
      "eness": 3172,
      "techniques": 3173,
      "Box": 3174,
      "cinem": 3175,
      "doesn": 3176,
      "noticed": 3177,
      "ensive": 3178,
      "Income": 3179,
      "Dream": 3180,
      "Angel": 3181,
      "emotion": 3182,
      "chaos": 3183,
      "cup": 3184,
      "Reading": 3185,
      "leader": 3186,
      "plier": 3187,
      "sustain": 3188,
      "uments": 3189,
      "heavy": 3190,
      "touch": 3191,
      "Lily": 3192,
      "looks": 3193,
      "believe": 3194,
      "broad": 3195,
      "Author": 3196,
      "expected": 3197,
      "fail": 3198,
      "ges": 3199,
      "ipped": 3200,
      "latest": 3201,
      "eling": 3202,
      "fate": 3203,
      "Revenue": 3204,
      "graphy": 3205,
      "Su": 3206,
      "intricate": 3207,
      "Shadow": 3208,
      "gence": 3209,
      "enix": 3210,
      "stri": 3211,
      "shadow": 3212,
      "strate": 3213,
      "06": 3214,
      "achieve": 3215,
      "Birth": 3216,
      "serious": 3217,
      "discussion": 3218,
      "Moon": 3219,
      "anx": 3220,
      "defin": 3221,
      "pay": 3222,
      "trip": 3223,
      "Auto": 3224,
      "speed": 3225,
      "window": 3226,
      "lon": 3227,
      "designed": 3228,
      "War": 3229,
      "accur": 3230,
      "begins": 3231,
      "aling": 3232,
      "quite": 3233,
      "acher": 3234,
      "tun": 3235,
      "nut": 3236,
      "Key": 3237,
      "Corp": 3238,
      "principles": 3239,
      "Provide": 3240,
      "03": 3241,
      "barely": 3242,
      "Duration": 3243,
      "widen": 3244,
      "suggests": 3245,
      "screen": 3246,
      "09": 3247,
      "animal": 3248,
      "ESS": 3249,
      "preh": 3250,
      "replied": 3251,
      "02": 3252,
      "ulations": 3253,
      "goal": 3254,
      "pier": 3255,
      "izations": 3256,
      "priv": 3257,
      "fundamental": 3258,
      "rul": 3259,
      "floor": 3260,
      "trou": 3261,
      "meth": 3262,
      "Today": 3263,
      "chan": 3264,
      "education": 3265,
      "vision": 3266,
      "influence": 3267,
      "pho": 3268,
      "conclusion": 3269,
      "brought": 3270,
      "lights": 3271,
      "Hit": 3272,
      "habit": 3273,
      "Euro": 3274,
      "mus": 3275,
      "Captain": 3276,
      "stra": 3277,
      "Hor": 3278,
      "tension": 3279,
      "ither": 3280,
      "enge": 3281,
      "expertise": 3282,
      "wise": 3283,
      "depending": 3284,
      "ishing": 3285,
      "daily": 3286,
      "Lena": 3287,
      "vert": 3288,
      "chuck": 3289,
      "anticipation": 3290,
      "fight": 3291,
      "archite": 3292,
      "ky": 3293,
      "Close": 3294,
      "Ke": 3295,
      "Annual": 3296,
      "shook": 3297,
      "doing": 3298,
      "wrong": 3299,
      "children": 3300,
      "...<": 3301,
      "struck": 3302,
      "appropri": 3303,
      "online": 3304,
      "Phoenix": 3305,
      "account": 3306,
      "minutes": 3307,
      "Los": 3308,
      "lie": 3309,
      "Earnings": 3310,
      "pa": 3311,
      "cab": 3312,
      "corner": 3313,
      "vibrant": 3314,
      "attered": 3315,
      "Europe": 3316,
      "cean": 3317,
      "valu": 3318,
      "Ph": 3319,
      "icial": 3320,
      "cially": 3321,
      "written": 3322,
      "ideas": 3323,
      "Category": 3324,
      "cli": 3325,
      "Queries": 3326,
      "fair": 3327,
      "Quantity": 3328,
      "determined": 3329,
      "issue": 3330,
      "beginning": 3331,
      "sho": 3332,
      "guide": 3333,
      "occur": 3334,
      "hit": 3335,
      "Sophia": 3336,
      "ease": 3337,
      "loss": 3338,
      "amed": 3339,
      "specifically": 3340,
      "Ratio": 3341,
      "appropriate": 3342,
      "recommend": 3343,
      "drop": 3344,
      "massive": 3345,
      "rise": 3346,
      "wers": 3347,
      "uries": 3348,
      "ero": 3349,
      "Health": 3350,
      "connot": 3351,
      "Cuisine": 3352,
      "Cache": 3353,
      "fant": 3354,
      "tight": 3355,
      "Release": 3356,
      "ports": 3357,
      "elements": 3358,
      "Together": 3359,
      "abilities": 3360,
      "Ak": 3361,
      "ived": 3362,
      "exh": 3363,
      "freedom": 3364,
      "ED": 3365,
      "bedtime": 3366,
      "twink": 3367,
      "almost": 3368,
      "racing": 3369,
      "joining": 3370,
      "Smart": 3371,
      "craft": 3372,
      "outh": 3373,
      "movement": 3374,
      "capital": 3375,
      "Your": 3376,
      "games": 3377,
      "rase": 3378,
      "acc": 3379,
      "ride": 3380,
      "fixed": 3381,
      "angle": 3382,
      "shimmer": 3383,
      "iconic": 3384,
      "San": 3385,
      "simply": 3386,
      "Month": 3387,
      "smiling": 3388,
      "turns": 3389,
      "Sci": 3390,
      "quarter": 3391,
      "Cre": 3392,
      "lor": 3393,
      "itation": 3394,
      "Latency": 3395,
      "seeking": 3396,
      "cas": 3397,
      "chance": 3398,
      "Database": 3399,
      "iter": 3400,
      "belong": 3401,
      "tape": 3402,
      "Why": 3403,
      "collective": 3404,
      "books": 3405,
      "optim": 3406,
      "Supplier": 3407,
      "explores": 3408,
      "regard": 3409,
      "Kaelin": 3410,
      "Zara": 3411,
      "feature": 3412,
      "cis": 3413,
      "Mi": 3414,
      "countries": 3415,
      "ember": 3416,
      "answers": 3417,
      "built": 3418,
      "roud": 3419,
      "Volume": 3420,
      "matic": 3421,
      "Identify": 3422,
      "nights": 3423,
      "Jam": 3424,
      "zy": 3425,
      "ison": 3426,
      "Char": 3427,
      "frustr": 3428,
      "smart": 3429,
      "types": 3430,
      "dle": 3431,
      "consist": 3432,
      "tales": 3433,
      "closed": 3434,
      "Eira": 3435,
      "communities": 3436,
      "brow": 3437,
      "activity": 3438,
      "condition": 3439,
      "crack": 3440,
      "Quest": 3441,
      "psych": 3442,
      "impressive": 3443,
      "golden": 3444,
      "Gre": 3445,
      "oting": 3446,
      "Whisper": 3447,
      "intense": 3448,
      "practices": 3449,
      "Inter": 3450,
      "sunlight": 3451,
      "ales": 3452,
      "analy": 3453,
      "leaned": 3454,
      "vely": 3455,
      "pleasure": 3456,
      "villagers": 3457,
      "agree": 3458,
      "venture": 3459,
      "engage": 3460,
      "solutely": 3461,
      "tar": 3462,
      "challenge": 3463,
      "cook": 3464,
      "Expl": 3465,
      "friendly": 3466,
      "calcul": 3467,
      "LY": 3468,
      "const": 3469,
      "ancial": 3470,
      "ensity": 3471,
      "genu": 3472,
      "commit": 3473,
      "electric": 3474,
      "hearts": 3475,
      "myth": 3476,
      "ips": 3477,
      "bot": 3478,
      "aper": 3479,
      "adget": 3480,
      "ties": 3481,
      "policy": 3482,
      "Pol": 3483,
      "wash": 3484,
      "location": 3485,
      "plement": 3486,
      "plot": 3487,
      "option": 3488,
      "done": 3489,
      "least": 3490,
      "neigh": 3491,
      "interesting": 3492,
      "catch": 3493,
      "analysis": 3494,
      "address": 3495,
      "Range": 3496,
      "galax": 3497,
      "ultimately": 3498,
      "Joining": 3499,
      "]<": 3500,
      "join": 3501,
      "danced": 3502,
      "classic": 3503,
      "theme": 3504,
      "clou": 3505,
      "hur": 3506,
      "tric": 3507,
      "instead": 3508,
      "omed": 3509,
      "stormy": 3510,
      "groups": 3511,
      "ender": 3512,
      "significance": 3513,
      "glass": 3514,
      "hop": 3515,
      "difficult": 3516,
      "exerc": 3517,
      "ston": 3518,
      "depth": 3519,
      "photo": 3520,
      "33": 3521,
      "ls": 3522,
      "ses": 3523,
      "stems": 3524,
      "date": 3525,
      "board": 3526,
      "awn": 3527,
      "insights": 3528,
      "stranger": 3529,
      "ique": 3530,
      "laughter": 3531,
      "gone": 3532,
      "identity": 3533,
      "battle": 3534,
      "dead": 3535,
      "wooden": 3536,
      "responsibility": 3537,
      "mi": 3538,
      "formal": 3539,
      "Ok": 3540,
      "cris": 3541,
      "learned": 3542,
      "priorit": 3543,
      "Angeles": 3544,
      "anted": 3545,
      "higher": 3546,
      "pride": 3547,
      "eager": 3548,
      "Publication": 3549,
      "rigue": 3550,
      "KE": 3551,
      "inde": 3552,
      "itchen": 3553,
      "vious": 3554,
      "gi": 3555,
      "ands": 3556,
      "corpor": 3557,
      "ken": 3558,
      "moving": 3559,
      "onders": 3560,
      "espe": 3561,
      "especially": 3562,
      "ami": 3563,
      "themat": 3564,
      "philos": 3565,
      "Intro": 3566,
      "struction": 3567,
      "widened": 3568,
      "JESS": 3569,
      "laughing": 3570,
      "months": 3571,
      "worked": 3572,
      "million": 3573,
      "Hen": 3574,
      "discussing": 3575,
      "computer": 3576,
      "\"\"": 3577,
      "atives": 3578,
      "People": 3579,
      "owned": 3580,
      "ardi": 3581,
      "benefits": 3582,
      "Ter": 3583,
      "shel": 3584,
      "illustr": 3585,
      "termine": 3586,
      "river": 3587,
      "Jamie": 3588,
      "Ref": 3589,
      "ults": 3590,
      "deeply": 3591,
      "Remember": 3592,
      "aband": 3593,
      "fted": 3594,
      "finished": 3595,
      "gathered": 3596,
      "aces": 3597,
      "Use": 3598,
      "sets": 3599,
      "giving": 3600,
      "###": 3601,
      "conflict": 3602,
      "fill": 3603,
      "Pre": 3604,
      "carefully": 3605,
      "problems": 3606,
      "overall": 3607,
      "viewer": 3608,
      "legend": 3609,
      "surv": 3610,
      "post": 3611,
      "eks": 3612,
      "bar": 3613,
      "week": 3614,
      "Outro": 3615,
      "tering": 3616,
      "stage": 3617,
      "py": 3618,
      "Thank": 3619,
      "display": 3620,
      "factors": 3621,
      "resili": 3622,
      "Yeah": 3623,
      "alle": 3624,
      "manip": 3625,
      "Chic": 3626,
      "ga": 3627,
      "compreh": 3628,
      "associated": 3629,
      "tax": 3630,
      "max": 3631,
      "adventures": 3632,
      "sentence": 3633,
      "death": 3634,
      "Mind": 3635,
      "rum": 3636,
      "colors": 3637,
      "difference": 3638,
      "job": 3639,
      "ENT": 3640,
      "State": 3641,
      "brave": 3642,
      "Rod": 3643,
      "spread": 3644,
      "pson": 3645,
      "IS": 3646,
      "struggles": 3647,
      "Thompson": 3648,
      "Where": 3649,
      "55": 3650,
      "dense": 3651,
      "distant": 3652,
      "grown": 3653,
      "lands": 3654,
      "surrounding": 3655,
      "guest": 3656,
      "cabin": 3657,
      "caut": 3658,
      "essence": 3659,
      "Chicago": 3660,
      "wealth": 3661,
      "investig": 3662,
      "adventur": 3663,
      "management": 3664,
      "helps": 3665,
      "arrived": 3666,
      "34": 3667,
      "major": 3668,
      "tapestry": 3669,
      "Mount": 3670,
      "fiction": 3671,
      "diverse": 3672,
      "professional": 3673,
      "lot": 3674,
      "erup": 3675,
      "revol": 3676,
      "concerns": 3677,
      "Meaning": 3678,
      "tor": 3679,
      "umin": 3680,
      "species": 3681,
      "atch": 3682,
      "avoid": 3683,
      "kets": 3684,
      "appreciate": 3685,
      "Mc": 3686,
      "ecos": 3687,
      "gust": 3688,
      "unease": 3689,
      "turning": 3690,
      "motiv": 3691,
      "Histor": 3692,
      "trail": 3693,
      "progress": 3694,
      "levels": 3695,
      "ordinary": 3696,
      "risk": 3697,
      "56": 3698,
      "scientific": 3699,
      "tonight": 3700,
      "mes": 3701,
      "stial": 3702,
      "saying": 3703,
      "BL": 3704,
      "powers": 3705,
      "distinct": 3706,
      "cultures": 3707,
      "shiver": 3708,
      "ato": 3709,
      "nergy": 3710,
      "whel": 3711,
      "HOST": 3712,
      "push": 3713,
      "asures": 3714,
      "ker": 3715,
      "gets": 3716,
      "encing": 3717,
      "Art": 3718,
      "dam": 3719,
      "lid": 3720,
      "encour": 3721,
      "speaking": 3722,
      "ARA": 3723,
      "safety": 3724,
      "ilia": 3725,
      "despite": 3726,
      "atory": 3727,
      "pan": 3728,
      "finish": 3729,
      "communication": 3730,
      "Gold": 3731,
      "King": 3732,
      "Sum": 3733,
      "served": 3734,
      "Afr": 3735,
      "model": 3736,
      "activities": 3737,
      "Henry": 3738,
      "foc": 3739,
      "Trans": 3740,
      "58": 3741,
      "spotted": 3742,
      "depend": 3743,
      "Social": 3744,
      "ROM": 3745,
      "measure": 3746,
      "ana": 3747,
      "plat": 3748,
      "connotations": 3749,
      "za": 3750,
      "oppos": 3751,
      "relat": 3752,
      "wore": 3753,
      "nal": 3754,
      "arms": 3755,
      "relev": 3756,
      "attack": 3757,
      "century": 3758,
      "genre": 3759,
      "Reg": 3760,
      "passing": 3761,
      "innovation": 3762,
      "witness": 3763,
      "Other": 3764,
      "pans": 3765,
      "allowing": 3766,
      "digital": 3767,
      "44": 3768,
      "separ": 3769,
      "drew": 3770,
      "agreement": 3771,
      "win": 3772,
      "contain": 3773,
      "settling": 3774,
      "necessary": 3775,
      "Chorus": 3776,
      "glim": 3777,
      "grab": 3778,
      "production": 3779,
      "mechan": 3780,
      "confident": 3781,
      "initial": 3782,
      "SEL": 3783,
      "season": 3784,
      "maintain": 3785,
      "memory": 3786,
      "increasingly": 3787,
      "lif": 3788,
      "confront": 3789,
      "buildings": 3790,
      "providing": 3791,
      "(%)\":": 3792,
      "born": 3793,
      "added": 3794,
      "32": 3795,
      "gar": 3796,
      "remembered": 3797,
      "59": 3798,
      "existence": 3799,
      "louder": 3800,
      "66": 3801,
      "maybe": 3802,
      "Fe": 3803,
      "typically": 3804,
      "Energy": 3805,
      "Light": 3806,
      "surprise": 3807,
      "adapt": 3808,
      "current": 3809,
      "courage": 3810,
      "oppon": 3811,
      "revealed": 3812,
      "involved": 3813,
      "result": 3814,
      "dramatic": 3815,
      "Ash": 3816,
      "ancing": 3817,
      "kids": 3818,
      "SELECT": 3819,
      "Ma": 3820,
      "money": 3821,
      "shot": 3822,
      "missing": 3823,
      "lin": 3824,
      "interact": 3825,
      "centuries": 3826,
      "comfor": 3827,
      "helped": 3828,
      "servation": 3829,
      "JAS": 3830,
      "shone": 3831,
      "vari": 3832,
      "redi": 3833,
      "jud": 3834,
      "Franc": 3835,
      "parents": 3836,
      "31": 3837,
      "FROM": 3838,
      "bul": 3839,
      "Francis": 3840,
      "adjust": 3841,
      "creat": 3842,
      "impos": 3843,
      "Conclusion": 3844,
      "parts": 3845,
      "ecosy": 3846,
      "ored": 3847,
      "echoing": 3848,
      "ingredi": 3849,
      "yal": 3850,
      "inspir": 3851,
      "Ely": 3852,
      "57": 3853,
      "ressed": 3854,
      "Verse": 3855,
      "average": 3856,
      "revealing": 3857,
      "opportunities": 3858,
      "anth": 3859,
      "temperature": 3860,
      "office": 3861,
      "easy": 3862,
      "predict": 3863,
      "revenge": 3864,
      "Rom": 3865,
      "serves": 3866,
      "reaching": 3867,
      "considered": 3868,
      "changing": 3869,
      "rights": 3870,
      "blow": 3871,
      "gain": 3872,
      "Absolutely": 3873,
      "interested": 3874,
      "Yes": 3875,
      "storytelling": 3876,
      "died": 3877,
      "ridge": 3878,
      "detect": 3879,
      "compon": 3880,
      "meeting": 3881,
      "bark": 3882,
      "BLACK": 3883,
      "MA": 3884,
      "report": 3885,
      "straight": 3886,
      "riguez": 3887,
      "Rodriguez": 3888,
      "etched": 3889,
      "iller": 3890,
      "sibilities": 3891,
      "Den": 3892,
      "brown": 3893,
      "willing": 3894,
      "silver": 3895,
      "ghost": 3896,
      "bled": 3897,
      "River": 3898,
      "compos": 3899,
      "bill": 3900,
      "later": 3901,
      "suddenly": 3902,
      "moved": 3903,
      "members": 3904,
      "sav": 3905,
      "financial": 3906,
      "pace": 3907,
      "rupt": 3908,
      "68": 3909,
      "Emilia": 3910,
      "politics": 3911,
      "Bl": 3912,
      "five": 3913,
      "hic": 3914,
      "cities": 3915,
      "stress": 3916,
      "sometimes": 3917,
      "dog": 3918,
      "hal": 3919,
      "aded": 3920,
      "clock": 3921,
      "reek": 3922,
      "Hou": 3923,
      "pressure": 3924,
      "Alright": 3925,
      "profound": 3926,
      "planning": 3927,
      "promise": 3928,
      "JASON": 3929,
      "52": 3930,
      "ee": 3931,
      "depths": 3932,
      "54": 3933,
      "dip": 3934,
      "contrast": 3935,
      "ME": 3936,
      "alg": 3937,
      "imagination": 3938,
      "plants": 3939,
      "astic": 3940,
      "wandered": 3941,
      "sparkling": 3942,
      "require": 3943,
      "advanced": 3944,
      "ligence": 3945,
      "Chapter": 3946,
      "stir": 3947,
      "arrying": 3948,
      "abandoned": 3949,
      "itary": 3950,
      "atever": 3951,
      "Houston": 3952,
      "unk": 3953,
      "Str": 3954,
      "rance": 3955,
      "total": 3956,
      "shine": 3957,
      "frame": 3958,
      "mention": 3959,
      "softly": 3960,
      "holding": 3961,
      "brea": 3962,
      "birds": 3963,
      "haun": 3964,
      "strength": 3965,
      "minim": 3966,
      "herit": 3967,
      "loud": 3968,
      "thrilling": 3969,
      "ians": 3970,
      "aff": 3971,
      "listened": 3972,
      "threads": 3973,
      "Spell": 3974,
      "Luc": 3975,
      "serve": 3976,
      "weeks": 3977,
      "begin": 3978,
      "perspectives": 3979,
      "humans": 3980,
      "efficient": 3981,
      "bond": 3982,
      "}{": 3983,
      "etic": 3984,
      "OF": 3985,
      "match": 3986,
      "Life": 3987,
      "Willow": 3988,
      "Soft": 3989,
      "frac": 3990,
      "(\\": 3991,
      "ternal": 3992,
      "Finally": 3993,
      "desper": 3994,
      "United": 3995,
      "practice": 3996,
      "sad": 3997,
      "dusty": 3998,
      "mos": 3999,
      "sitting": 4000,
      "kindness": 4001,
      "zing": 4002,
      "Analy": 4003,
      "burst": 4004,
      "tom": 4005,
      "angers": 4006,
      "feelings": 4007,
      "blood": 4008,
      "medical": 4009,
      "four": 4010,
      "Techn": 4011,
      "na": 4012,
      "fans": 4013,
      "intensity": 4014,
      "allowed": 4015,
      "happen": 4016,
      "Fri": 4017,
      "lan": 4018,
      "stic": 4019,
      "subject": 4020,
      "anxiety": 4021,
      "67": 4022,
      "connections": 4023,
      "ump": 4024,
      "write": 4025,
      "nest": 4026,
      "sen": 4027,
      "Nova": 4028,
      "slip": 4029,
      "greater": 4030,
      "companies": 4031,
      "ulate": 4032,
      "nuances": 4033,
      "carrying": 4034,
      "services": 4035,
      "pathy": 4036,
      "itut": 4037,
      "goals": 4038,
      "melody": 4039,
      "sister": 4040,
      "requires": 4041,
      "Recommend": 4042,
      "pages": 4043,
      "eyebrow": 4044,
      "resilience": 4045,
      "Its": 4046,
      "Johnson": 4047,
      "party": 4048,
      "healthcare": 4049,
      "breathtaking": 4050,
      "rhy": 4051,
      "JEN": 4052,
      "gave": 4053,
      "ably": 4054,
      "AB": 4055,
      "Par": 4056,
      "Am": 4057,
      "choices": 4058,
      "generations": 4059,
      "empty": 4060,
      "synonym": 4061,
      "offer": 4062,
      "whether": 4063,
      "citiz": 4064,
      "resonated": 4065,
      "sac": 4066,
      "Myster": 4067,
      "crystal": 4068,
      "basic": 4069,
      "ito": 4070,
      "Francisco": 4071,
      "reviewer": 4072,
      "demo": 4073,
      "acts": 4074,
      "pounding": 4075,
      "swer": 4076,
      "gras": 4077,
      "Another": 4078,
      "opened": 4079,
      "diversity": 4080,
      "shade": 4081,
      "band": 4082,
      "seat": 4083,
      "news": 4084,
      "piercing": 4085,
      "includes": 4086,
      "implications": 4087,
      "beside": 4088,
      "sunny": 4089,
      "wed": 4090,
      "hung": 4091,
      "Answer": 4092,
      "sides": 4093,
      "Patel": 4094,
      "faced": 4095,
      "Che": 4096,
      "bra": 4097,
      "whenever": 4098,
      "testament": 4099,
      "Eli": 4100,
      "allows": 4101,
      "erce": 4102,
      "scanning": 4103,
      "comfort": 4104,
      "ield": 4105,
      "waves": 4106,
      "wonders": 4107,
      "vanished": 4108,
      "bad": 4109,
      "training": 4110,
      "dynamics": 4111,
      "moral": 4112,
      "log": 4113,
      "Then": 4114,
      "tools": 4115,
      "pict": 4116,
      "sne": 4117,
      "apan": 4118,
      "particip": 4119,
      "cu": 4120,
      "item": 4121,
      "complete": 4122,
      "lunch": 4123,
      "100": 4124,
      "Golden": 4125,
      "60": 4126,
      "bustling": 4127,
      "hills": 4128,
      "Japan": 4129,
      "Okay": 4130,
      "Mod": 4131,
      "beach": 4132,
      "rive": 4133,
      "regular": 4134,
      "general": 4135,
      "fades": 4136,
      "|\\": 4137,
      "Recommendation": 4138,
      "je": 4139,
      "trapped": 4140,
      "products": 4141,
      "hun": 4142,
      "birth": 4143,
      "INTRO": 4144,
      "Sc": 4145,
      "enom": 4146,
      "ama": 4147,
      "notes": 4148,
      "shif": 4149,
      "establ": 4150,
      "sey": 4151,
      "rom": 4152,
      "longer": 4153,
      "gency": 4154,
      "zo": 4155,
      "Descri": 4156,
      "finding": 4157,
      "nerv": 4158,
      "footsteps": 4159,
      "Arin": 4160,
      "feed": 4161,
      "indeed": 4162,
      "ju": 4163,
      "stern": 4164,
      "devices": 4165,
      "oning": 4166,
      "grandmother": 4167,
      "candid": 4168,
      "trayal": 4169,
      "Miami": 4170,
      "orm": 4171,
      "\\|\\": 4172,
      "fare": 4173,
      "America": 4174,
      "42": 4175,
      "implement": 4176,
      "frag": 4177,
      "awe": 4178,
      "meant": 4179,
      "valuable": 4180,
      "fish": 4181,
      "}\\|": 4182,
      "79": 4183,
      "determine": 4184,
      "trade": 4185,
      "useum": 4186,
      "provides": 4187,
      "reeling": 4188,
      "preser": 4189,
      "original": 4190,
      "ivers": 4191,
      "signs": 4192,
      "rules": 4193,
      "proud": 4194,
      "oil": 4195,
      "guard": 4196,
      "ashing": 4197,
      "listening": 4198,
      "--------": 4199,
      "Question": 4200,
      "Game": 4201,
      "spaces": 4202,
      "boundaries": 4203,
      "Sol": 4204,
      "aware": 4205,
      "uary": 4206,
      "ffic": 4207,
      "square": 4208,
      "blend": 4209,
      "applic": 4210,
      "mathemat": 4211,
      "Ju": 4212,
      "53": 4213,
      "WH": 4214,
      "UN": 4215,
      "rustling": 4216,
      "Comm": 4217,
      "effort": 4218,
      "apping": 4219,
      "spr": 4220,
      "stands": 4221,
      "ologies": 4222,
      "mysteries": 4223,
      "source": 4224,
      "settled": 4225,
      "TOR": 4226,
      "relevant": 4227,
      "region": 4228,
      ")**:": 4229,
      "reason": 4230,
      "Hel": 4231,
      "thous": 4232,
      "Secre": 4233,
      "wall": 4234,
      "rhyth": 4235,
      "Jason": 4236,
      "labor": 4237,
      "North": 4238,
      "kitchen": 4239,
      "island": 4240,
      "starts": 4241,
      "white": 4242,
      "avail": 4243,
      "theory": 4244,
      "ocean": 4245,
      "hall": 4246,
      "urban": 4247,
      "seems": 4248,
      "positive": 4249,
      "brand": 4250,
      "lessly": 4251,
      "LL": 4252,
      "uzz": 4253,
      "Sim": 4254,
      "interactions": 4255,
      "SE": 4256,
      "Indian": 4257,
      "```<": 4258,
      "comed": 4259,
      "69": 4260,
      "charm": 4261,
      "rating": 4262,
      "forced": 4263,
      "51": 4264,
      "subst": 4265,
      "wisdom": 4266,
      "processes": 4267,
      "itor": 4268,
      "experienced": 4269,
      "engaged": 4270,
      "healthy": 4271,
      "hom": 4272,
      "Sat": 4273,
      "cies": 4274,
      "ingredients": 4275,
      "enig": 4276,
      "evidence": 4277,
      "Every": 4278,
      "crew": 4279,
      "orders": 4280,
      "harmony": 4281,
      "ides": 4282,
      "places": 4283,
      "informed": 4284,
      "clean": 4285,
      "ari": 4286,
      "whatever": 4287,
      "stream": 4288,
      "Maybe": 4289,
      "exclaimed": 4290,
      "breaking": 4291,
      "uncertain": 4292,
      "web": 4293,
      "din": 4294,
      "Thr": 4295,
      "graphic": 4296,
      "haven": 4297,
      "shaping": 4298,
      "77": 4299,
      "machine": 4300,
      "remark": 4301,
      "greed": 4302,
      "iff": 4303,
      "folk": 4304,
      "instant": 4305,
      "desire": 4306,
      "Prof": 4307,
      "CE": 4308,
      "opin": 4309,
      "solar": 4310,
      "lower": 4311,
      "economy": 4312,
      "thes": 4313,
      "horse": 4314,
      "Row": 4315,
      "earli": 4316,
      "possess": 4317,
      "fro": 4318,
      "phrase": 4319,
      "fields": 4320,
      "industry": 4321,
      "phenom": 4322,
      "identify": 4323,
      "tract": 4324,
      "Rock": 4325,
      "ik": 4326,
      "notable": 4327,
      "international": 4328,
      "43": 4329,
      "store": 4330,
      "Should": 4331,
      "flavor": 4332,
      "trouble": 4333,
      "ady": 4334,
      "arguments": 4335,
      "hol": 4336,
      "LU": 4337,
      "rust": 4338,
      "pable": 4339,
      "official": 4340,
      "sleek": 4341,
      "structures": 4342,
      "grav": 4343,
      "alongside": 4344,
      "struggling": 4345,
      "program": 4346,
      "neighbor": 4347,
      "umph": 4348,
      "...\"": 4349,
      "starting": 4350,
      "Akira": 4351,
      "Ger": 4352,
      "irts": 4353,
      "skill": 4354,
      "othing": 4355,
      "unseen": 4356,
      "0000": 4357,
      "echoed": 4358,
      "Green": 4359,
      "AD": 4360,
      "income": 4361,
      "entrance": 4362,
      "prefer": 4363,
      "rap": 4364,
      "ansion": 4365,
      "women": 4366,
      "Mot": 4367,
      "98": 4368,
      "Rep": 4369,
      "gently": 4370,
      "countless": 4371,
      "fly": 4372,
      "situations": 4373,
      "Overall": 4374,
      "gadget": 4375,
      "chair": 4376,
      "showc": 4377,
      "Keep": 4378,
      "illustrate": 4379,
      "5000": 4380,
      "ha": 4381,
      "$$$": 4382,
      "placed": 4383,
      "pulled": 4384,
      "ulture": 4385,
      "chuckled": 4386,
      "empathy": 4387,
      "experiment": 4388,
      "warning": 4389,
      "effectively": 4390,
      "unsettling": 4391,
      "cross": 4392,
      "endless": 4393,
      "owner": 4394,
      "feat": 4395,
      "plant": 4396,
      "yard": 4397,
      "supposed": 4398,
      "otal": 4399,
      "OUTRO": 4400,
      "kid": 4401,
      "SARA": 4402,
      "extra": 4403,
      "ceed": 4404,
      "tasks": 4405,
      "tour": 4406,
      "competition": 4407,
      "sustainable": 4408,
      "block": 4409,
      "smooth": 4410,
      "calling": 4411,
      "heat": 4412,
      "overwhel": 4413,
      "oming": 4414,
      "ICA": 4415,
      "Fore": 4416,
      "colle": 4417,
      "solute": 4418,
      "cave": 4419,
      "Super": 4420,
      "wait": 4421,
      "prote": 4422,
      "Grand": 4423,
      "Space": 4424,
      "pun": 4425,
      "motive": 4426,
      "62": 4427,
      "ghter": 4428,
      "woven": 4429,
      "bird": 4430,
      "Denver": 4431,
      "wouldn": 4432,
      "bag": 4433,
      "showed": 4434,
      "triumph": 4435,
      "chat": 4436,
      "perspective": 4437,
      "SARAH": 4438,
      "lap": 4439,
      "forts": 4440,
      "afterno": 4441,
      "Inside": 4442,
      "gued": 4443,
      "irst": 4444,
      "artist": 4445,
      "Gal": 4446,
      "marked": 4447,
      "covered": 4448,
      "Detect": 4449,
      "Mag": 4450,
      "vies": 4451,
      "vary": 4452,
      "usual": 4453,
      "received": 4454,
      "spirits": 4455,
      "responsible": 4456,
      "Science": 4457,
      "**,": 4458,
      "ower": 4459,
      "exec": 4460,
      "innovative": 4461,
      "compassion": 4462,
      "strict": 4463,
      "paper": 4464,
      "orted": 4465,
      "political": 4466,
      "Del": 4467,
      "stopped": 4468,
      "vic": 4469,
      "IV": 4470,
      "laws": 4471,
      "Haw": 4472,
      "Vo": 4473,
      "cou": 4474,
      "grat": 4475,
      "bling": 4476,
      "partner": 4477,
      "considering": 4478,
      "isms": 4479,
      "exciting": 4480,
      "expectations": 4481,
      "absolute": 4482,
      "creative": 4483,
      "eas": 4484,
      "oken": 4485,
      "crime": 4486,
      "65": 4487,
      "School": 4488,
      "buzz": 4489,
      "64": 4490,
      "indic": 4491,
      "speech": 4492,
      "French": 4493,
      "Leg": 4494,
      "Join": 4495,
      "captiv": 4496,
      "dipped": 4497,
      "exchange": 4498,
      "central": 4499,
      "63": 4500,
      "bodies": 4501,
      "crafted": 4502,
      "returned": 4503,
      "core": 4504,
      "misch": 4505,
      "sq": 4506,
      "reduce": 4507,
      "99": 4508,
      "uff": 4509,
      "arp": 4510,
      "comfortable": 4511,
      "Retail": 4512,
      "Mal": 4513,
      "continues": 4514,
      "hesitated": 4515,
      "Are": 4516,
      "previous": 4517,
      "skirts": 4518,
      "MENT": 4519,
      "Look": 4520,
      "celestial": 4521,
      "giant": 4522,
      "tears": 4523,
      "warmth": 4524,
      "enigmatic": 4525,
      "degre": 4526,
      "facing": 4527,
      "rows": 4528,
      "ora": 4529,
      "staring": 4530,
      "chill": 4531,
      "til": 4532,
      "decl": 4533,
      "bell": 4534,
      "Mem": 4535,
      "gri": 4536,
      "88": 4537,
      "lake": 4538,
      "engineering": 4539,
      "rene": 4540,
      "Whoa": 4541,
      "JESSICA": 4542,
      "Haven": 4543,
      "sigh": 4544,
      "citizens": 4545,
      "nes": 4546,
      "Elyria": 4547,
      "sparkled": 4548,
      "House": 4549,
      "materials": 4550,
      "drawing": 4551,
      "card": 4552,
      "inking": 4553,
      "Detective": 4554,
      "however": 4555,
      "intent": 4556,
      "characteristics": 4557,
      "ethere": 4558,
      "doors": 4559,
      "winding": 4560,
      "amid": 4561,
      "terri": 4562,
      "renowned": 4563,
      "Bey": 4564,
      "accept": 4565,
      "unexpected": 4566,
      "cosmos": 4567,
      "blur": 4568,
      "Sports": 4569,
      "cum": 4570,
      "elop": 4571,
      "brother": 4572,
      "Throughout": 4573,
      "eat": 4574,
      "shimmering": 4575,
      "ears": 4576,
      "print": 4577,
      "coast": 4578,
      "ils": 4579,
      "outskirts": 4580,
      "Heart": 4581,
      "stronger": 4582,
      "revolution": 4583,
      "ott": 4584,
      "die": 4585,
      "isol": 4586,
      "adium": 4587,
      "agric": 4588,
      "Small": 4589,
      "ners": 4590,
      "pto": 4591,
      "delicate": 4592,
      "policies": 4593,
      "Won": 4594,
      "altern": 4595,
      "covering": 4596,
      "mountains": 4597,
      "Fiction": 4598,
      "terror": 4599,
      "losing": 4600,
      "rugged": 4601,
      "usive": 4602,
      "comprehensive": 4603,
      "Beyond": 4604,
      "41": 4605,
      "enthusiast": 4606,
      "becoming": 4607,
      "mood": 4608,
      "bon": 4609,
      "demonstr": 4610,
      "plain": 4611,
      "galaxy": 4612,
      "acknow": 4613,
      "cream": 4614,
      "happiness": 4615,
      "tack": 4616,
      "void": 4617,
      "assist": 4618,
      "newfound": 4619,
      "burning": 4620,
      "maintaining": 4621,
      "mountain": 4622,
      "notice": 4623,
      "udged": 4624,
      "61": 4625,
      "either": 4626,
      "hers": 4627,
      "seam": 4628,
      "78": 4629,
      "CON": 4630,
      "fest": 4631,
      "creature": 4632,
      "waters": 4633,
      "painting": 4634,
      "bert": 4635,
      "awar": 4636,
      "ville": 4637,
      "prop": 4638,
      "skept": 4639,
      "zed": 4640,
      "ister": 4641,
      "efforts": 4642,
      "Adventure": 4643,
      "architecture": 4644,
      "ophical": 4645,
      "States": 4646,
      "highly": 4647,
      "wrap": 4648,
      "methods": 4649,
      "ements": 4650,
      "Come": 4651,
      "bow": 4652,
      "Deb": 4653,
      "ellow": 4654,
      "Journey": 4655,
      "artif": 4656,
      "appoint": 4657,
      "population": 4658,
      "grinned": 4659,
      "pression": 4660,
      "extre": 4661,
      "symbols": 4662,
      "alo": 4663,
      "ird": 4664,
      "developed": 4665,
      "sql": 4666,
      "Lost": 4667,
      "rection": 4668,
      "appl": 4669,
      "Ser": 4670,
      "swir": 4671,
      "strategy": 4672,
      "Elect": 4673,
      "achiev": 4674,
      "Develop": 4675,
      "wondering": 4676,
      "wear": 4677,
      "worry": 4678,
      "Thor": 4679,
      "ronic": 4680,
      "lur": 4681,
      "ception": 4682,
      "mere": 4683,
      "corrid": 4684,
      "studying": 4685,
      "Before": 4686,
      "Each": 4687,
      "taste": 4688,
      "worlds": 4689,
      "ulner": 4690,
      "Park": 4691,
      "ka": 4692,
      "loyal": 4693,
      "creation": 4694,
      "existed": 4695,
      "remained": 4696,
      "Aero": 4697,
      "confidence": 4698,
      "vital": 4699,
      "ief": 4700,
      "cozy": 4701,
      "Raven": 4702,
      "ince": 4703,
      "shout": 4704,
      "combination": 4705,
      "genuine": 4706,
      "attempt": 4707,
      "deliver": 4708,
      "Considering": 4709,
      "organization": 4710,
      "haps": 4711,
      "oll": 4712,
      "`.": 4713,
      "infr": 4714,
      "omin": 4715,
      "creaking": 4716,
      "club": 4717,
      "ptions": 4718,
      "yr": 4719,
      "icious": 4720,
      "aky": 4721,
      "intelligence": 4722,
      "supp": 4723,
      "apes": 4724,
      "MAR": 4725,
      "Pri": 4726,
      "icy": 4727,
      "MIKE": 4728,
      "awareness": 4729,
      "97": 4730,
      "roof": 4731,
      "neg": 4732,
      "South": 4733,
      "afternoon": 4734,
      "grate": 4735,
      "ensuring": 4736,
      "childhood": 4737,
      "glowing": 4738,
      "ull": 4739,
      "timel": 4740,
      "routine": 4741,
      "rush": 4742,
      "drip": 4743,
      "Garden": 4744,
      "Vis": 4745,
      "bly": 4746,
      "teams": 4747,
      "larger": 4748,
      "expan": 4749,
      "dinner": 4750,
      "iency": 4751,
      "intri": 4752,
      "broken": 4753,
      "oted": 4754,
      "precis": 4755,
      "usually": 4756,
      "astru": 4757,
      "Indust": 4758,
      "Ben": 4759,
      "highlights": 4760,
      "sources": 4761,
      "umber": 4762,
      "happening": 4763,
      "struggle": 4764,
      "clas": 4765,
      "ptic": 4766,
      "cred": 4767,
      "Finance": 4768,
      "myst": 4769,
      "gnes": 4770,
      "practical": 4771,
      "Understanding": 4772,
      "astructure": 4773,
      "idents": 4774,
      "firmly": 4775,
      "resist": 4776,
      "states": 4777,
      "Cur": 4778,
      "sia": 4779,
      "cording": 4780,
      "palpable": 4781,
      "gazed": 4782,
      "prioritize": 4783,
      "democr": 4784,
      "glimp": 4785,
      "unity": 4786,
      "available": 4787,
      "Fant": 4788,
      "medi": 4789,
      "laughed": 4790,
      "viol": 4791,
      ">(": 4792,
      "publ": 4793,
      "resh": 4794,
      "brain": 4795,
      "remarkable": 4796,
      "All": 4797,
      "fade": 4798,
      "concl": 4799,
      "towering": 4800,
      "military": 4801,
      "EMI": 4802,
      "Mex": 4803,
      "fierce": 4804,
      "Historical": 4805,
      "earlier": 4806,
      "constant": 4807,
      "wel": 4808,
      "offers": 4809,
      "column": 4810,
      "expanse": 4811,
      "drive": 4812,
      "libr": 4813,
      "spoken": 4814,
      "mber": 4815,
      "erson": 4816,
      "antum": 4817,
      "acle": 4818,
      "statement": 4819,
      "shift": 4820,
      "risks": 4821,
      "falls": 4822,
      "omy": 4823,
      "stadium": 4824,
      "Create": 4825,
      "hurt": 4826,
      "Agnes": 4827,
      "Ve": 4828,
      "functions": 4829,
      "ictory": 4830,
      "numer": 4831,
      "flying": 4832,
      "invested": 4833,
      "smell": 4834,
      "vulner": 4835,
      "rot": 4836,
      "weak": 4837,
      "Please": 4838,
      "solving": 4839,
      "interests": 4840,
      "====": 4841,
      "Tre": 4842,
      "ibility": 4843,
      "Consider": 4844,
      "acity": 4845,
      "itar": 4846,
      "sec": 4847,
      "Pract": 4848,
      "involve": 4849,
      "Way": 4850,
      "ime": 4851,
      "origin": 4852,
      "EMILY": 4853,
      "seek": 4854,
      "JACK": 4855,
      "shaped": 4856,
      "senior": 4857,
      "creativity": 4858,
      "size": 4859,
      "solve": 4860,
      "Moder": 4861,
      "eping": 4862,
      "scale": 4863,
      "ravel": 4864,
      "thed": 4865,
      "Satur": 4866,
      "sharp": 4867,
      "Without": 4868,
      "ERE": 4869,
      "Rowan": 4870,
      "mut": 4871,
      "fan": 4872,
      "rate": 4873,
      "entertain": 4874,
      "30s": 4875,
      "guing": 4876,
      "ander": 4877,
      "instr": 4878,
      "desc": 4879,
      "umbling": 4880,
      "heroes": 4881,
      "hest": 4882,
      "geo": 4883,
      "visuals": 4884,
      "dry": 4885,
      "jour": 4886,
      "lively": 4887,
      "iving": 4888,
      "toward": 4889,
      "89": 4890,
      "trem": 4891,
      "Ste": 4892,
      "whist": 4893,
      "subtle": 4894,
      "Def": 4895,
      "format": 4896,
      "views": 4897,
      "Mark": 4898,
      "hi": 4899,
      "presents": 4900,
      "collection": 4901,
      "swell": 4902,
      "stuck": 4903,
      "deal": 4904,
      "Automotive": 4905,
      "75": 4906,
      "waste": 4907,
      "trudged": 4908,
      "brighter": 4909,
      "cosmic": 4910,
      "direction": 4911,
      "via": 4912,
      "GU": 4913,
      "oding": 4914,
      "skies": 4915,
      "76": 4916,
      "wid": 4917,
      "shrou": 4918,
      "Creek": 4919,
      "Gather": 4920,
      "slowly": 4921,
      "Pal": 4922,
      "iously": 4923,
      "Mor": 4924,
      "sequence": 4925,
      "carried": 4926,
      "remains": 4927,
      "thon": 4928,
      "cham": 4929,
      "Mystery": 4930,
      "topics": 4931,
      "opponent": 4932,
      "enh": 4933,
      "serving": 4934,
      "Christ": 4935,
      "approaches": 4936,
      "BY": 4937,
      "soothing": 4938,
      "crop": 4939,
      "tang": 4940,
      "Geor": 4941,
      "paint": 4942,
      "alian": 4943,
      "causing": 4944,
      "ressing": 4945,
      "court": 4946,
      "operation": 4947,
      "Wilson": 4948,
      "save": 4949,
      "ipment": 4950,
      "Imp": 4951,
      "irt": 4952,
      "fa": 4953,
      "glint": 4954,
      "la": 4955,
      "code": 4956,
      "emphasizes": 4957,
      "walks": 4958,
      "solid": 4959,
      "societal": 4960,
      "Mom": 4961,
      "skipped": 4962,
      "ourselves": 4963,
      "yssey": 4964,
      "tied": 4965,
      "neut": 4966,
      "trunk": 4967,
      "formation": 4968,
      "assum": 4969,
      "rare": 4970,
      "enchanted": 4971,
      "EST": 4972,
      "teacher": 4973,
      "promised": 4974,
      "satisfying": 4975,
      "leaf": 4976,
      "feter": 4977,
      "fru": 4978,
      "shows": 4979,
      "guilt": 4980,
      "forests": 4981,
      "boots": 4982,
      "handed": 4983,
      "distribut": 4984,
      "significantly": 4985,
      "ified": 4986,
      "feteria": 4987,
      "erupted": 4988,
      "Fire": 4989,
      "sudden": 4990,
      "grateful": 4991,
      "fellow": 4992,
      "nie": 4993,
      "beck": 4994,
      "construct": 4995,
      "exercise": 4996,
      "components": 4997,
      "possibilities": 4998,
      "Tra": 4999,
      "imm": 5000,
      "mystical": 5001,
      "highlighting": 5002,
      "72": 5003,
      "piv": 5004,
      "pire": 5005,
      "rising": 5006,
      "74": 5007,
      "ean": 5008,
      "businesses": 5009,
      "properties": 5010,
      "noise": 5011,
      "increase": 5012,
      "isn": 5013,
      "objects": 5014,
      "IA": 5015,
      "LUC": 5016,
      "billion": 5017,
      "ford": 5018,
      "outcome": 5019,
      "ought": 5020,
      "vehic": 5021,
      "unravel": 5022,
      "rig": 5023,
      "metal": 5024,
      "deli": 5025,
      "Imag": 5026,
      "humor": 5027,
      "ignant": 5028,
      "concern": 5029,
      "responding": 5030,
      "grad": 5031,
      "radi": 5032,
      "pure": 5033,
      "omatic": 5034,
      "Experi": 5035,
      "scientists": 5036,
      "clever": 5037,
      "steady": 5038,
      "Water": 5039,
      "ators": 5040,
      "colon": 5041,
      "helping": 5042,
      "Plan": 5043,
      "lu": 5044,
      "pes": 5045,
      "Stre": 5046,
      "LO": 5047,
      "elder": 5048,
      "tt": 5049,
      "Pres": 5050,
      "icts": 5051,
      "keeping": 5052,
      "Nightshade": 5053,
      "nuanced": 5054,
      "Mil": 5055,
      "chatter": 5056,
      "73": 5057,
      "usage": 5058,
      "illumin": 5059,
      "literature": 5060,
      "shrouded": 5061,
      "results": 5062,
      "71": 5063,
      "reck": 5064,
      "hys": 5065,
      "oved": 5066,
      "poignant": 5067,
      "discuss": 5068,
      "cous": 5069,
      "asons": 5070,
      "managed": 5071,
      "promote": 5072,
      "infrastructure": 5073,
      "flower": 5074,
      "Tur": 5075,
      "vac": 5076,
      "sem": 5077,
      "ivid": 5078,
      "Whispering": 5079,
      "closely": 5080,
      "plans": 5081,
      "presented": 5082,
      "languages": 5083,
      "silent": 5084,
      "oo": 5085,
      "joined": 5086,
      "Lee": 5087,
      "Bu": 5088,
      "conservation": 5089,
      "Coast": 5090,
      "details": 5091,
      "fears": 5092,
      "site": 5093,
      "encounter": 5094,
      "cs": 5095,
      "dou": 5096,
      "temper": 5097,
      "Brit": 5098,
      "Silver": 5099,
      "seeming": 5100,
      "comment": 5101,
      "Island": 5102,
      "medic": 5103,
      "reminded": 5104,
      "ultural": 5105,
      "advice": 5106,
      "packed": 5107,
      "demand": 5108,
      "mical": 5109,
      "faded": 5110,
      "cow": 5111,
      "ino": 5112,
      "kers": 5113,
      "ske": 5114,
      "believ": 5115,
      "ART": 5116,
      "rial": 5117,
      "wonderful": 5118,
      "corridors": 5119,
      "amond": 5120,
      "incorpor": 5121,
      "reput": 5122,
      "unior": 5123,
      "National": 5124,
      "chir": 5125,
      "opposing": 5126,
      "ture": 5127,
      "oma": 5128,
      "okay": 5129,
      "heritage": 5130,
      "Har": 5131,
      "astron": 5132,
      "windows": 5133,
      "rors": 5134,
      "ashion": 5135,
      "musical": 5136,
      "minute": 5137,
      "picked": 5138,
      "adventurous": 5139,
      "First": 5140,
      "faction": 5141,
      "nestled": 5142,
      "scientist": 5143,
      "appearance": 5144,
      "settle": 5145,
      "amidst": 5146,
      "developing": 5147,
      "echoes": 5148,
      "peaceful": 5149,
      "frequ": 5150,
      "Od": 5151,
      "beloved": 5152,
      "embark": 5153,
      "shown": 5154,
      "base": 5155,
      "record": 5156,
      "ilies": 5157,
      "Play": 5158,
      "amount": 5159,
      "everyday": 5160,
      "lingered": 5161,
      "advant": 5162,
      "apartment": 5163,
      "pivotal": 5164,
      "bread": 5165,
      "navigated": 5166,
      "largest": 5167,
      "introduced": 5168,
      "suff": 5169,
      "delight": 5170,
      "network": 5171,
      "frustration": 5172,
      "invent": 5173,
      "shoulder": 5174,
      "basics": 5175,
      "delicious": 5176,
      "skilled": 5177,
      "scapes": 5178,
      "authority": 5179,
      "winter": 5180,
      "Syn": 5181,
      "mischiev": 5182,
      "Wild": 5183,
      "enance": 5184,
      "gun": 5185,
      "izza": 5186,
      "Take": 5187,
      "spreading": 5188,
      "butter": 5189,
      "antha": 5190,
      "Secret": 5191,
      "released": 5192,
      "laughs": 5193,
      "crowded": 5194,
      "worldwide": 5195,
      "autumn": 5196,
      "illi": 5197,
      "Blackwood": 5198,
      "grip": 5199,
      "Fantasy": 5200,
      "treatment": 5201,
      "projects": 5202,
      "inj": 5203,
      "press": 5204,
      "defense": 5205,
      "95": 5206,
      "forth": 5207,
      "pieces": 5208,
      "Sel": 5209,
      "atest": 5210,
      "cuisine": 5211,
      "snow": 5212,
      "zen": 5213,
      "evolution": 5214,
      "repe": 5215,
      "promoting": 5216,
      "rose": 5217,
      "ighest": 5218,
      "neighborhood": 5219,
      "ification": 5220,
      "Similar": 5221,
      "Cos": 5222,
      "fine": 5223,
      "utter": 5224,
      "capacity": 5225,
      "movements": 5226,
      "studies": 5227,
      "Samantha": 5228,
      "commitment": 5229,
      "Experience": 5230,
      "status": 5231,
      "talent": 5232,
      "eval": 5233,
      "thanks": 5234,
      "grass": 5235,
      "half": 5236,
      "Debate": 5237,
      "Coun": 5238,
      "complexity": 5239,
      "annual": 5240,
      "asm": 5241,
      "broader": 5242,
      "thro": 5243,
      "explic": 5244,
      "ethics": 5245,
      "85": 5246,
      "bid": 5247,
      "entity": 5248,
      "reci": 5249,
      "cases": 5250,
      "entered": 5251,
      "happens": 5252,
      "relax": 5253,
      "civilization": 5254,
      "alley": 5255,
      "overwhelming": 5256,
      "cher": 5257,
      "84": 5258,
      "feels": 5259,
      "carry": 5260,
      "rab": 5261,
      "Starlight": 5262,
      "climax": 5263,
      "domin": 5264,
      "Rav": 5265,
      "aurants": 5266,
      "Voy": 5267,
      "laun": 5268,
      "victory": 5269,
      "astro": 5270,
      ".\")": 5271,
      "Forest": 5272,
      "dripping": 5273,
      "circum": 5274,
      "anging": 5275,
      "informal": 5276,
      "ologist": 5277,
      "Bio": 5278,
      "danger": 5279,
      "igns": 5280,
      "solutions": 5281,
      "concerned": 5282,
      "eted": 5283,
      "WHERE": 5284,
      "Odyssey": 5285,
      "Lar": 5286,
      "han": 5287,
      "aughter": 5288,
      "drifted": 5289,
      "bles": 5290,
      "private": 5291,
      "Thorne": 5292,
      "Italian": 5293,
      "software": 5294,
      "flames": 5295,
      "Kaito": 5296,
      "Rus": 5297,
      "voices": 5298,
      "expertly": 5299,
      "Data": 5300,
      "Ber": 5301,
      "hushed": 5302,
      "eting": 5303,
      "manage": 5304,
      "unes": 5305,
      "differences": 5306,
      "cles": 5307,
      "follows": 5308,
      "ethereal": 5309,
      "ute": 5310,
      "doc": 5311,
      "General": 5312,
      "junior": 5313,
      "damage": 5314,
      "rival": 5315,
      "artic": 5316,
      "dear": 5317,
      "opportunity": 5318,
      "ET": 5319,
      "___": 5320,
      "stretch": 5321,
      "caf": 5322,
      "patient": 5323,
      "70": 5324,
      "ule": 5325,
      "select": 5326,
      "eternity": 5327,
      "tics": 5328,
      "ald": 5329,
      "showing": 5330,
      "93": 5331,
      "iling": 5332,
      "mirror": 5333,
      "reflection": 5334,
      "ificial": 5335,
      "tele": 5336,
      "Aur": 5337,
      "pause": 5338,
      "Emot": 5339,
      "Smith": 5340,
      "\")": 5341,
      "gro": 5342,
      "enter": 5343,
      "cryptic": 5344,
      "gift": 5345,
      "advance": 5346,
      "colorful": 5347,
      "96": 5348,
      "increased": 5349,
      "gathering": 5350,
      "Go": 5351,
      "Te": 5352,
      "sched": 5353,
      "Harr": 5354,
      "lobe": 5355,
      "icken": 5356,
      "sorts": 5357,
      "transformation": 5358,
      "History": 5359,
      "Jane": 5360,
      "score": 5361,
      "closing": 5362,
      "AM": 5363,
      "contributed": 5364,
      "Py": 5365,
      "student": 5366,
      "technologies": 5367,
      "foster": 5368,
      "cop": 5369,
      "stones": 5370,
      "initi": 5371,
      "Dep": 5372,
      "greatest": 5373,
      "experiencing": 5374,
      "gging": 5375,
      "database": 5376,
      "psychological": 5377,
      "IL": 5378,
      "OW": 5379,
      "gle": 5380,
      "sway": 5381,
      "inspiring": 5382,
      "thrilled": 5383,
      "relatively": 5384,
      "avors": 5385,
      "udd": 5386,
      "guidance": 5387,
      "philosophical": 5388,
      "Vex": 5389,
      "waf": 5390,
      "92": 5391,
      "soil": 5392,
      "equipment": 5393,
      "satisfaction": 5394,
      "Good": 5395,
      "evalu": 5396,
      "Jan": 5397,
      "excell": 5398,
      "devast": 5399,
      "focused": 5400,
      "leather": 5401,
      "consumed": 5402,
      "NU": 5403,
      "fantasy": 5404,
      "ecosystems": 5405,
      "icated": 5406,
      "cipl": 5407,
      "surve": 5408,
      "regarding": 5409,
      "Fro": 5410,
      "arily": 5411,
      "oms": 5412,
      "univers": 5413,
      "shapes": 5414,
      "diamond": 5415,
      "six": 5416,
      "expressed": 5417,
      "Ravens": 5418,
      "blade": 5419,
      "sparked": 5420,
      "maintenance": 5421,
      "sport": 5422,
      "forgettable": 5423,
      "gs": 5424,
      "programs": 5425,
      "shares": 5426,
      "poll": 5427,
      "restaurant": 5428,
      "argument": 5429,
      "Street": 5430,
      "83": 5431,
      "Chin": 5432,
      "fateful": 5433,
      "highest": 5434,
      "wing": 5435,
      "applications": 5436,
      "rocks": 5437,
      "skelet": 5438,
      "Food": 5439,
      "literary": 5440,
      "campa": 5441,
      "ardian": 5442,
      "86": 5443,
      "Po": 5444,
      "puzz": 5445,
      "rical": 5446,
      "enem": 5447,
      "existing": 5448,
      "umns": 5449,
      "whistle": 5450,
      "widely": 5451,
      "cil": 5452,
      "ila": 5453,
      "immedi": 5454,
      "sume": 5455,
      "choose": 5456,
      "cinematic": 5457,
      "argue": 5458,
      "rolled": 5459,
      "orith": 5460,
      "scious": 5461,
      "circumst": 5462,
      "aters": 5463,
      "Profess": 5464,
      "mentioned": 5465,
      "Analyze": 5466,
      "aren": 5467,
      "Bi": 5468,
      "Power": 5469,
      "fashion": 5470,
      "sect": 5471,
      "artistic": 5472,
      "liqu": 5473,
      "veget": 5474,
      "Despite": 5475,
      "87": 5476,
      "Cal": 5477,
      "movies": 5478,
      "weaving": 5479,
      "narrator": 5480,
      "cousin": 5481,
      "families": 5482,
      "94": 5483,
      "mad": 5484,
      "August": 5485,
      "organizations": 5486,
      "costs": 5487,
      "cket": 5488,
      "user": 5489,
      "Ravenswood": 5490,
      "oon": 5491,
      "tact": 5492,
      "description": 5493,
      "magn": 5494,
      "tical": 5495,
      "comms": 5496,
      "midst": 5497,
      "scanned": 5498,
      "outcomes": 5499,
      "80": 5500,
      "81": 5501,
      "bud": 5502,
      "older": 5503,
      "dish": 5504,
      "prices": 5505,
      "treacher": 5506,
      "drink": 5507,
      "portrayal": 5508,
      "conviction": 5509,
      "sadness": 5510,
      "82": 5511,
      "lish": 5512,
      "meets": 5513,
      "prepar": 5514,
      "Contr": 5515,
      "Phys": 5516,
      "darker": 5517,
      "horror": 5518,
      "paths": 5519,
      "bracing": 5520,
      "hus": 5521,
      "warri": 5522,
      "Global": 5523,
      "items": 5524,
      "dro": 5525,
      "nation": 5526,
      "snack": 5527,
      "branch": 5528,
      "conscious": 5529,
      "cise": 5530,
      "boat": 5531,
      "meaningful": 5532,
      "seconds": 5533,
      "applicable": 5534,
      "stom": 5535,
      "poem": 5536,
      "produce": 5537,
      "crisp": 5538,
      "wings": 5539,
      "returns": 5540,
      "deci": 5541,
      "contribute": 5542,
      "throat": 5543,
      "Lin": 5544,
      "gate": 5545,
      "91": 5546,
      "gratitude": 5547,
      "columns": 5548,
      "prepare": 5549,
      "Get": 5550,
      "iors": 5551,
      "JO": 5552,
      "aks": 5553,
      "eating": 5554,
      "Next": 5555,
      "powered": 5556,
      "intellect": 5557,
      "Aurora": 5558,
      "icing": 5559,
      "decades": 5560,
      "TV": 5561,
      "motion": 5562,
      "CONT": 5563,
      "precision": 5564,
      "Bar": 5565,
      "Until": 5566,
      "transition": 5567,
      "keeper": 5568,
      "stract": 5569,
      "lla": 5570,
      "holds": 5571,
      "numbers": 5572,
      "vas": 5573,
      "idential": 5574,
      "sole": 5575,
      "ella": 5576,
      "conversations": 5577,
      "homes": 5578,
      "disagree": 5579,
      "grandfather": 5580,
      "OM": 5581,
      "valid": 5582,
      "flickering": 5583,
      "treacherous": 5584,
      "except": 5585,
      "subscri": 5586,
      "dawn": 5587,
      "moderator": 5588,
      "active": 5589,
      "evil": 5590,
      "ashed": 5591,
      "remain": 5592,
      "epic": 5593,
      "eventually": 5594,
      "institut": 5595,
      "taller": 5596,
      "drama": 5597,
      "inc": 5598,
      "whose": 5599,
      "hiding": 5600,
      "careful": 5601,
      "file": 5602,
      "infect": 5603,
      "leaders": 5604,
      "ulating": 5605,
      "interpret": 5606,
      "artists": 5607,
      "occas": 5608,
      "winds": 5609,
      "pati": 5610,
      "Mountain": 5611,
      ".\"<": 5612,
      "enjo": 5613,
      "foundation": 5614,
      "clouds": 5615,
      "Japanese": 5616,
      "rolling": 5617,
      "sipping": 5618,
      "wrapped": 5619,
      "fortun": 5620,
      "Bre": 5621,
      "timate": 5622,
      "environments": 5623,
      "icism": 5624,
      "disease": 5625,
      "morrow": 5626,
      "painted": 5627,
      "rob": 5628,
      "brings": 5629,
      "assess": 5630,
      "Describe": 5631,
      "library": 5632,
      ")\"": 5633,
      "Main": 5634,
      "Tal": 5635,
      "bridge": 5636,
      "exchanged": 5637,
      "explained": 5638,
      "thunder": 5639,
      "icked": 5640,
      "formed": 5641,
      "pressed": 5642,
      "drum": 5643,
      "ishment": 5644,
      "temple": 5645,
      "cafeteria": 5646,
      "strategic": 5647,
      "Lucy": 5648,
      "Set": 5649,
      "Q1": 5650,
      "ronics": 5651,
      "Large": 5652,
      "rider": 5653,
      "reducing": 5654,
      "tips": 5655,
      "located": 5656,
      "chol": 5657,
      "backyard": 5658,
      "traditions": 5659,
      "sections": 5660,
      "SON": 5661,
      "worried": 5662,
      "towns": 5663,
      "susp": 5664,
      "enthusiasm": 5665,
      "target": 5666,
      "actual": 5667,
      "efficiency": 5668,
      "Mis": 5669,
      "pers": 5670,
      "former": 5671,
      "Mega": 5672,
      "cycle": 5673,
      "European": 5674,
      "moonlight": 5675,
      "service": 5676,
      "blowing": 5677,
      "Jim": 5678,
      "kil": 5679,
      "millions": 5680,
      "Sof": 5681,
      "involving": 5682,
      "Q4": 5683,
      "chemical": 5684,
      "UP": 5685,
      "impossible": 5686,
      "Lu": 5687,
      "Wood": 5688,
      "ees": 5689,
      "hat": 5690,
      "perhaps": 5691,
      "weigh": 5692,
      "goes": 5693,
      "ingu": 5694,
      "tomorrow": 5695,
      "ague": 5696,
      "mini": 5697,
      "guys": 5698,
      "amaz": 5699,
      "units": 5700,
      "arts": 5701,
      "thentic": 5702,
      "destruction": 5703,
      "spiritual": 5704,
      "skeptical": 5705,
      "dale": 5706,
      "creaked": 5707,
      "politic": 5708,
      "convin": 5709,
      "Chinese": 5710,
      "iles": 5711,
      "creates": 5712,
      "reputation": 5713,
      "Ul": 5714,
      "orer": 5715,
      "solution": 5716,
      "regulations": 5717,
      "quickened": 5718,
      "influenced": 5719,
      "Valley": 5720,
      "ider": 5721,
      "release": 5722,
      "countered": 5723,
      "mansion": 5724,
      "illing": 5725,
      "Min": 5726,
      "Many": 5727,
      "Tay": 5728,
      "cking": 5729,
      "osh": 5730,
      "roy": 5731,
      "spring": 5732,
      "pressing": 5733,
      "cards": 5734,
      "mort": 5735,
      "landscapes": 5736,
      "sacri": 5737,
      "victim": 5738,
      "azz": 5739,
      "nodding": 5740,
      "initially": 5741,
      "Sur": 5742,
      "ardens": 5743,
      "discipl": 5744,
      "Person": 5745,
      "xim": 5746,
      "companion": 5747,
      "demonstrate": 5748,
      "desperate": 5749,
      "|<": 5750,
      "confron": 5751,
      "candidates": 5752,
      "protection": 5753,
      "Like": 5754,
      "museum": 5755,
      "eds": 5756,
      "appreciation": 5757,
      "rhythm": 5758,
      "90": 5759,
      "dressed": 5760,
      "depart": 5761,
      "expressions": 5762,
      "Pa": 5763,
      "Love": 5764,
      "intric": 5765,
      "method": 5766,
      "Q3": 5767,
      "eve": 5768,
      "beings": 5769,
      "LATER": 5770,
      "teach": 5771,
      "operations": 5772,
      "algorith": 5773,
      "dunes": 5774,
      "engagement": 5775,
      "carbon": 5776,
      "Lord": 5777,
      "SH": 5778,
      "tend": 5779,
      "contains": 5780,
      "sought": 5781,
      "Lo": 5782,
      "navigating": 5783,
      "intended": 5784,
      "Taylor": 5785,
      "tired": 5786,
      "qual": 5787,
      "Friday": 5788,
      "Lou": 5789,
      "Exactly": 5790,
      "Orion": 5791,
      "African": 5792,
      "commentary": 5793,
      "diamonds": 5794,
      "stomach": 5795,
      "Di": 5796,
      "Lake": 5797,
      "acade": 5798,
      "encountered": 5799,
      "civilizations": 5800,
      "Rel": 5801,
      "shivers": 5802,
      "Fl": 5803,
      "wish": 5804,
      "West": 5805,
      "talked": 5806,
      "opinions": 5807,
      "\"!": 5808,
      "customers": 5809,
      "temperatures": 5810,
      "Q2": 5811,
      "asking": 5812,
      "offering": 5813,
      "represents": 5814,
      "midnight": 5815,
      "rac": 5816,
      "orange": 5817,
      "Western": 5818,
      "Sunday": 5819,
      "Eld": 5820,
      "otic": 5821,
      "Real": 5822,
      "apers": 5823,
      "porary": 5824,
      "Old": 5825,
      "uals": 5826,
      "humidity": 5827,
      "stretched": 5828,
      "architect": 5829,
      "figures": 5830,
      "hill": 5831,
      "yn": 5832,
      "alogue": 5833,
      "unforgettable": 5834,
      "ula": 5835,
      "ights": 5836,
      "visions": 5837,
      "limit": 5838,
      "waited": 5839,
      "marks": 5840,
      "Emotional": 5841,
      "skeletal": 5842,
      "Zee": 5843,
      "Seattle": 5844,
      "tunn": 5845,
      "tuning": 5846,
      "\"\"\"": 5847,
      "subscribe": 5848,
      "equal": 5849,
      "RATOR": 5850,
      "aside": 5851,
      "anting": 5852,
      "warned": 5853,
      "pretty": 5854,
      "IM": 5855,
      "X5": 5856,
      "distur": 5857,
      "Sofia": 5858,
      "locking": 5859,
      "Ru": 5860,
      "seeing": 5861,
      "norms": 5862,
      "Drive": 5863,
      "numerous": 5864,
      "dialogue": 5865,
      "emphasis": 5866,
      "battery": 5867,
      "agriculture": 5868,
      "Imagine": 5869,
      "Mad": 5870,
      "hous": 5871,
      "eliness": 5872,
      "conduct": 5873,
      "brilli": 5874,
      "smaller": 5875,
      "Human": 5876,
      "cookies": 5877,
      "tea": 5878,
      "questioning": 5879,
      "Mich": 5880,
      "binary": 5881,
      "neck": 5882,
      "enjoyed": 5883,
      "rode": 5884,
      "thern": 5885,
      "ometric": 5886,
      "accurate": 5887,
      "degrees": 5888,
      "rangle": 5889,
      "appears": 5890,
      "mathematical": 5891,
      "backs": 5892,
      "langle": 5893,
      "uncertainty": 5894,
      "Cont": 5895,
      "workers": 5896,
      "rix": 5897,
      "aws": 5898,
      "perfectly": 5899,
      "fraid": 5900,
      "BE": 5901,
      "virt": 5902,
      "wave": 5903,
      "recognition": 5904,
      "json": 5905,
      "amb": 5906,
      "deser": 5907,
      "ICE": 5908,
      "reflecting": 5909,
      "Spark": 5910,
      "supporting": 5911,
      "destination": 5912,
      "scenes": 5913,
      "desk": 5914,
      "cooking": 5915,
      "guiding": 5916,
      "Kate": 5917,
      "aud": 5918,
      "Enter": 5919,
      "NULL": 5920,
      "pin": 5921,
      "independ": 5922,
      "lied": 5923,
      "image": 5924,
      "guided": 5925,
      "Press": 5926,
      "dancing": 5927,
      "instance": 5928,
      "Would": 5929,
      "dangers": 5930,
      "ida": 5931,
      "Ms": 5932,
      "lone": 5933,
      "zon": 5934,
      "nervously": 5935,
      "haz": 5936,
      "genetic": 5937,
      "markdown": 5938,
      "rapid": 5939,
      "circumstances": 5940,
      "TE": 5941,
      "vs": 5942,
      "stuff": 5943,
      "glimpse": 5944,
      "tit": 5945,
      "Lady": 5946,
      "underbrush": 5947,
      "referring": 5948,
      "RAN": 5949,
      "afraid": 5950,
      "keting": 5951,
      "osen": 5952,
      "nowhere": 5953,
      "jobs": 5954,
      "describes": 5955,
      "phenomen": 5956,
      "Egy": 5957,
      "ador": 5958,
      "string": 5959,
      "complet": 5960,
      "Whiskers": 5961,
      "agg": 5962,
      "spelled": 5963,
      "GUEST": 5964,
      "dar": 5965,
      "20s": 5966,
      "police": 5967,
      "governments": 5968,
      "wound": 5969,
      "Trust": 5970,
      "kilome": 5971,
      "wil": 5972,
      "urs": 5973,
      "resolution": 5974,
      "advantage": 5975,
      "Cosmic": 5976,
      "Physical": 5977,
      "thetic": 5978,
      "INS": 5979,
      "threats": 5980,
      "chirping": 5981,
      "caused": 5982,
      "interface": 5983,
      "Shadows": 5984,
      "Horizon": 5985,
      "flex": 5986,
      "announ": 5987,
      "Bur": 5988,
      "ittle": 5989,
      "leads": 5990,
      "accountability": 5991,
      "bak": 5992,
      "wildlife": 5993,
      "huge": 5994,
      "length": 5995,
      "acon": 5996,
      "belonging": 5997,
      "chatting": 5998,
      "elling": 5999,
      "Egypt": 6000,
      "sending": 6001,
      "Um": 6002,
      "tables": 6003,
      "resource": 6004,
      "communicate": 6005,
      "mistakes": 6006,
      "Ama": 6007,
      "mob": 6008,
      "gry": 6009,
      "grinning": 6010,
      "alien": 6011,
      "anny": 6012,
      "treasures": 6013,
      "discussed": 6014,
      "required": 6015,
      "middle": 6016,
      "secure": 6017,
      "ps": 6018,
      "territ": 6019,
      "eman": 6020,
      "testing": 6021,
      "English": 6022,
      "embracing": 6023,
      "murder": 6024,
      "philosop": 6025,
      "asis": 6026,
      "unsure": 6027,
      "published": 6028,
      "societies": 6029,
      "Africa": 6030,
      "inth": 6031,
      "lifted": 6032,
      "heavily": 6033,
      "welcome": 6034,
      "admit": 6035,
      "handle": 6036,
      "Horror": 6037,
      "daughter": 6038,
      "osaur": 6039,
      "begun": 6040,
      "define": 6041,
      "Ultimately": 6042,
      "):**": 6043,
      "Hall": 6044,
      "mixture": 6045,
      "quir": 6046,
      "protecting": 6047,
      "revenue": 6048,
      "survival": 6049,
      "nost": 6050,
      "thorn": 6051,
      "transformed": 6052,
      "coln": 6053,
      "Technology": 6054,
      "Lincoln": 6055,
      "gon": 6056,
      "tel": 6057,
      "poses": 6058,
      "Marcus": 6059,
      "goods": 6060,
      "Silent": 6061,
      "disappoint": 6062,
      "realize": 6063,
      "Systems": 6064,
      "Saturday": 6065,
      "aced": 6066,
      "residents": 6067,
      "backpack": 6068,
      "iven": 6069,
      "technical": 6070,
      "rates": 6071,
      "conver": 6072,
      "convent": 6073,
      "contact": 6074,
      "ships": 6075,
      "guards": 6076,
      "successful": 6077,
      "LUCY": 6078,
      "Mary": 6079,
      "\\[": 6080,
      "blank": 6081,
      "sie": 6082,
      "ifying": 6083,
      "heriff": 6084,
      "sinister": 6085,
      "Add": 6086,
      "shelter": 6087,
      "tast": 6088,
      "ufact": 6089,
      "ites": 6090,
      "waver": 6091,
      "sail": 6092,
      "Home": 6093,
      "wife": 6094,
      "fortunately": 6095,
      "page": 6096,
      "encompass": 6097,
      "conflicts": 6098,
      "rumors": 6099,
      "revel": 6100,
      "challenging": 6101,
      "neither": 6102,
      "clar": 6103,
      "Motion": 6104,
      "authentic": 6105,
      "gravity": 6106,
      "contem": 6107,
      "masterpiece": 6108,
      "freshly": 6109,
      "transported": 6110,
      "baked": 6111,
      "ulting": 6112,
      "restaurants": 6113,
      "ITY": 6114,
      "liquid": 6115,
      "vy": 6116,
      "owl": 6117,
      "dio": 6118,
      "capture": 6119,
      "visible": 6120,
      "loneliness": 6121,
      "ghostly": 6122,
      "fem": 6123,
      "Thriller": 6124,
      "Mat": 6125,
      "tocol": 6126,
      "deliber": 6127,
      "gin": 6128,
      "acknowled": 6129,
      "jack": 6130,
      "buzzing": 6131,
      "settings": 6132,
      "chicken": 6133,
      "Guess": 6134,
      "Wonka": 6135,
      "yellow": 6136,
      "afford": 6137,
      "brilliant": 6138,
      "bite": 6139,
      "mouth": 6140,
      "Init": 6141,
      "haunting": 6142,
      "coal": 6143,
      "bigger": 6144,
      "platforms": 6145,
      "devastating": 6146,
      "chain": 6147,
      "Dra": 6148,
      "TA": 6149,
      "smoke": 6150,
      "csv": 6151,
      "phenomenon": 6152,
      "shut": 6153,
      "described": 6154,
      "Econom": 6155,
      "Instead": 6156,
      "kilometers": 6157,
      "Big": 6158,
      "egg": 6159,
      "ham": 6160,
      "facts": 6161,
      "thesis": 6162,
      "\\]": 6163,
      "sian": 6164,
      "employees": 6165,
      "Industries": 6166,
      "Tri": 6167,
      "Tues": 6168,
      "ba": 6169,
      "cks": 6170,
      "viewers": 6171,
      "Little": 6172,
      "san": 6173,
      "thoughtful": 6174,
      "paralle": 6175,
      "Fi": 6176,
      "bear": 6177,
      "Empire": 6178,
      "Recogn": 6179,
      "showcasing": 6180,
      "offered": 6181,
      "visitors": 6182,
      ")<": 6183,
      "flies": 6184,
      "redem": 6185,
      "heated": 6186,
      "adding": 6187,
      "steel": 6188,
      "micro": 6189,
      "yrinth": 6190,
      "outdoor": 6191,
      "schools": 6192,
      "JOIN": 6193,
      "flight": 6194,
      "feedback": 6195,
      "UR": 6196,
      "aph": 6197,
      "brella": 6198,
      "inspire": 6199,
      "excellent": 6200,
      "Sep": 6201,
      "actic": 6202,
      "planets": 6203,
      "passionate": 6204,
      "charming": 6205,
      "Python": 6206,
      "earch": 6207,
      "seemingly": 6208,
      "bio": 6209,
      "gig": 6210,
      "hide": 6211,
      "instruct": 6212,
      "understood": 6213,
      "Environ": 6214,
      "_2": 6215,
      "explan": 6216,
      "volcan": 6217,
      "artifacts": 6218,
      "Wayne": 6219,
      "dates": 6220,
      "mn": 6221,
      "veil": 6222,
      "voc": 6223,
      "sheer": 6224,
      "shouldn": 6225,
      "emergency": 6226,
      "Blackthorn": 6227,
      "guess": 6228,
      "technological": 6229,
      "thousands": 6230,
      "glit": 6231,
      "souls": 6232,
      "grasp": 6233,
      "British": 6234,
      "Harris": 6235,
      "pou": 6236,
      "task": 6237,
      "Ob": 6238,
      "Oc": 6239,
      "Rain": 6240,
      "tough": 6241,
      "inhabit": 6242,
      "arted": 6243,
      "Club": 6244,
      "tire": 6245,
      "customer": 6246,
      "Roman": 6247,
      "Cany": 6248,
      "chosen": 6249,
      "sugar": 6250,
      "suspect": 6251,
      "yield": 6252,
      "Rohan": 6253,
      "Canyon": 6254,
      "pit": 6255,
      "ada": 6256,
      "Tit": 6257,
      "oes": 6258,
      "mythology": 6259,
      ".\\]": 6260,
      "La": 6261,
      "scar": 6262,
      "doub": 6263,
      "repair": 6264,
      "wove": 6265,
      "Pressure": 6266,
      "convert": 6267,
      "Stor": 6268,
      "flavors": 6269,
      "gut": 6270,
      "stim": 6271,
      "indicate": 6272,
      "integral": 6273,
      "vivid": 6274,
      "aby": 6275,
      "geq": 6276,
      "films": 6277,
      "hole": 6278,
      "Tuesday": 6279,
      "Common": 6280,
      "raged": 6281,
      "terrain": 6282,
      "cheese": 6283,
      "delved": 6284,
      "entirely": 6285,
      "Regular": 6286,
      "lined": 6287,
      "itable": 6288,
      "Frost": 6289,
      "Fol": 6290,
      "caution": 6291,
      "Flor": 6292,
      "meat": 6293,
      "struggled": 6294,
      "saloon": 6295,
      "winning": 6296,
      "ruth": 6297,
      "addressing": 6298,
      "cloud": 6299,
      "additional": 6300,
      "40s": 6301,
      "picture": 6302,
      "()": 6303,
      "END": 6304,
      "categ": 6305,
      "Others": 6306,
      "frozen": 6307,
      "inf": 6308,
      "auce": 6309,
      "legs": 6310,
      "combined": 6311,
      "fighting": 6312,
      "diet": 6313,
      "Stars": 6314,
      "Exploring": 6315,
      "Refers": 6316,
      "Bal": 6317,
      "kno": 6318,
      "liar": 6319,
      "institutions": 6320,
      "Gar": 6321,
      "Jer": 6322,
      "queries": 6323,
      "sector": 6324,
      "kest": 6325,
      "diving": 6326,
      "linear": 6327,
      "confusion": 6328,
      "touched": 6329,
      "Build": 6330,
      "veins": 6331,
      "charge": 6332,
      "Therefore": 6333,
      "gardens": 6334,
      "wealthy": 6335,
      "ico": 6336,
      "external": 6337,
      "Those": 6338,
      "visiting": 6339,
      "Thomas": 6340,
      "twinkle": 6341,
      "busy": 6342,
      "pick": 6343,
      "redemption": 6344,
      "traffic": 6345,
      "immersive": 6346,
      "ethical": 6347,
      "college": 6348,
      "Cry": 6349,
      "aust": 6350,
      "aled": 6351,
      "fulness": 6352,
      "café": 6353,
      "pale": 6354,
      "labyrinth": 6355,
      "believed": 6356,
      "robot": 6357,
      "Arch": 6358,
      "novels": 6359,
      "investigate": 6360,
      "Electronics": 6361,
      "Som": 6362,
      "gems": 6363,
      "imagine": 6364,
      "unfolded": 6365,
      "Voyage": 6366,
      "adversity": 6367,
      "train": 6368,
      "occurs": 6369,
      "featuring": 6370,
      "Hi": 6371,
      "Oak": 6372,
      "category": 6373,
      "memor": 6374,
      "capable": 6375,
      "styles": 6376,
      "Ae": 6377,
      "nic": 6378,
      "necessarily": 6379,
      "dishes": 6380,
      "Stay": 6381,
      "marize": 6382,
      "electricity": 6383,
      "haunted": 6384,
      "Practice": 6385,
      "ulated": 6386,
      "surge": 6387,
      "Jaxon": 6388,
      "transportation": 6389,
      "rivers": 6390,
      "finds": 6391,
      "instinct": 6392,
      "Law": 6393,
      "NAR": 6394,
      "hub": 6395,
      "easily": 6396,
      "instrument": 6397,
      "hues": 6398,
      "overty": 6399,
      "pictures": 6400,
      "Hawk": 6401,
      "enjoying": 6402,
      "hip": 6403,
      "webs": 6404,
      "destroy": 6405,
      "Action": 6406,
      "bench": 6407,
      "internal": 6408,
      "harsh": 6409,
      "Book": 6410,
      "List": 6411,
      "earned": 6412,
      "George": 6413,
      "Globe": 6414,
      "vines": 6415,
      "retri": 6416,
      "legacy": 6417,
      "Desert": 6418,
      "historian": 6419,
      "Snow": 6420,
      "pacing": 6421,
      "sort": 6422,
      "perched": 6423,
      "inequality": 6424,
      "dise": 6425,
      "occurr": 6426,
      "failed": 6427,
      "Story": 6428,
      "vation": 6429,
      "repr": 6430,
      "ensions": 6431,
      "fading": 6432,
      "imal": 6433,
      "plate": 6434,
      "ellar": 6435,
      "execut": 6436,
      "NO": 6437,
      "sDB": 6438,
      "}\\|^": 6439,
      "ptoms": 6440,
      "medicine": 6441,
      "June": 6442,
      "Option": 6443,
      "{\\|\\": 6444,
      "climbed": 6445,
      "See": 6446,
      "knows": 6447,
      "whoosh": 6448,
      "twinkling": 6449,
      "cott": 6450,
      "sales": 6451,
      "Ari": 6452,
      "Forgotten": 6453,
      "surroundings": 6454,
      "Moonshadow": 6455,
      "filling": 6456,
      "prises": 6457,
      "manufact": 6458,
      "rule": 6459,
      "Plus": 6460,
      "swept": 6461,
      "AV": 6462,
      "buried": 6463,
      "snorted": 6464,
      "statements": 6465,
      "ITION": 6466,
      "Cele": 6467,
      "Hol": 6468,
      "crept": 6469,
      "sensing": 6470,
      "LI": 6471,
      "ranean": 6472,
      "tracking": 6473,
      "goodby": 6474,
      "Hello": 6475,
      "resonance": 6476,
      "Detector": 6477,
      "grabbed": 6478,
      "unit": 6479,
      "journal": 6480,
      "]**<": 6481,
      "diseases": 6482,
      "Eth": 6483,
      "ensi": 6484,
      "ader": 6485,
      "flour": 6486,
      "Oli": 6487,
      "hadn": 6488,
      "array": 6489,
      "ado": 6490,
      "tap": 6491,
      "images": 6492,
      "integration": 6493,
      "wandering": 6494,
      "Mer": 6495,
      "trics": 6496,
      "transc": 6497,
      "expand": 6498,
      "cells": 6499,
      "torn": 6500,
      "pir": 6501,
      "orn": 6502,
      "ached": 6503,
      "prompt": 6504,
      "detailed": 6505,
      "accident": 6506,
      "migr": 6507,
      "enhance": 6508,
      "Spo": 6509,
      "representation": 6510,
      "nesses": 6511,
      "limits": 6512,
      "organisms": 6513,
      "ctu": 6514,
      "ancy": 6515,
      "Household": 6516,
      "Cho": 6517,
      "genuin": 6518,
      "weaver": 6519,
      "aught": 6520,
      "layer": 6521,
      "negative": 6522,
      "NARRATOR": 6523,
      "TOM": 6524,
      "trading": 6525,
      "Meanwhile": 6526,
      "separate": 6527,
      "Bo": 6528,
      "physics": 6529,
      "fits": 6530,
      "oked": 6531,
      "angles": 6532,
      "convinced": 6533,
      "mass": 6534,
      "insight": 6535,
      "getic": 6536,
      "iterranean": 6537,
      "Globex": 6538,
      "rons": 6539,
      "thoughtfully": 6540,
      "rooftop": 6541,
      "Firebrand": 6542,
      "Professor": 6543,
      "intellectual": 6544,
      "Bro": 6545,
      "NA": 6546,
      "theore": 6547,
      "glad": 6548,
      "sensitive": 6549,
      "Mediterranean": 6550,
      "wavering": 6551,
      "faster": 6552,
      "alarm": 6553,
      "ucked": 6554,
      "interrup": 6555,
      "Cri": 6556,
      "castle": 6557,
      "behaviors": 6558,
      "transpar": 6559,
      "seamless": 6560,
      "ae": 6561,
      "bold": 6562,
      "creeping": 6563,
      "makers": 6564,
      "stick": 6565,
      "chase": 6566,
      "Sky": 6567,
      "input": 6568,
      "nutr": 6569,
      "forged": 6570,
      "absor": 6571,
      "relate": 6572,
      "hack": 6573,
      "spun": 6574,
      "simp": 6575,
      "idi": 6576,
      "Weaver": 6577,
      "darkest": 6578,
      "curly": 6579,
      "buy": 6580,
      "legendary": 6581,
      "Louis": 6582,
      "killed": 6583,
      "according": 6584,
      "eful": 6585,
      "preferences": 6586,
      "entertainment": 6587,
      "Cel": 6588,
      "stability": 6589,
      "elines": 6590,
      "poor": 6591,
      "implying": 6592,
      "detective": 6593,
      "composition": 6594,
      "iable": 6595,
      "intently": 6596,
      "Malak": 6597,
      "extreme": 6598,
      "Timmy": 6599,
      "slipped": 6600,
      "tackle": 6601,
      "Frostblade": 6602,
      "conven": 6603,
      "approxim": 6604,
      "legal": 6605,
      "mischievous": 6606,
      "accom": 6607,
      "sius": 6608,
      "Neuro": 6609,
      "warming": 6610,
      "Non": 6611,
      "hesitation": 6612,
      "swing": 6613,
      "Edge": 6614,
      "fairy": 6615,
      "genuinely": 6616,
      "cert": 6617,
      "ACME": 6618,
      "defend": 6619,
      "platform": 6620,
      "ael": 6621,
      "ORD": 6622,
      "wake": 6623,
      "kingdom": 6624,
      "shoulders": 6625,
      "husband": 6626,
      "trusty": 6627,
      "dimly": 6628,
      "inher": 6629,
      "streng": 6630,
      "otech": 6631,
      "motivations": 6632,
      "acies": 6633,
      "proced": 6634,
      "Make": 6635,
      "adap": 6636,
      "unlike": 6637,
      "awak": 6638,
      "NY": 6639,
      "Sou": 6640,
      "encies": 6641,
      "ita": 6642,
      "desol": 6643,
      "regions": 6644,
      "India": 6645,
      "Phil": 6646,
      "Winter": 6647,
      "artificial": 6648,
      "beating": 6649,
      "System": 6650,
      "volume": 6651,
      "improvement": 6652,
      "coord": 6653,
      "Jenny": 6654,
      "privile": 6655,
      "command": 6656,
      "Toys": 6657,
      "flowed": 6658,
      "eclip": 6659,
      "precious": 6660,
      "Tyler": 6661,
      "ecosystem": 6662,
      "hon": 6663,
      "iri": 6664,
      "dragon": 6665,
      "squir": 6666,
      "fy": 6667,
      "ndor": 6668,
      "howled": 6669,
      "characterized": 6670,
      "nods": 6671,
      "machines": 6672,
      "Exam": 6673,
      "investment": 6674,
      "Silverleaf": 6675,
      "elle": 6676,
      "discovers": 6677,
      "academic": 6678,
      "Enterprises": 6679,
      "construction": 6680,
      "incredibly": 6681,
      "spend": 6682,
      "raz": 6683,
      "awa": 6684,
      "express": 6685,
      "resolve": 6686,
      "dynamic": 6687,
      "Hope": 6688,
      "Sing": 6689,
      "umble": 6690,
      "Research": 6691,
      "Cent": 6692,
      "poverty": 6693,
      "yscr": 6694,
      "Whispers": 6695,
      "applause": 6696,
      "reaction": 6697,
      "orient": 6698,
      "ota": 6699,
      "directed": 6700,
      "Monday": 6701,
      "riage": 6702,
      "performances": 6703,
      "Midnight": 6704,
      "edy": 6705,
      "perpet": 6706,
      "letting": 6707,
      "blooming": 6708,
      "flickered": 6709,
      "interconnected": 6710,
      "shore": 6711,
      "therap": 6712,
      "streams": 6713,
      "swirling": 6714,
      "ta": 6715,
      "everywhere": 6716,
      "reliable": 6717,
      "flee": 6718,
      "capabilities": 6719,
      "names": 6720,
      "threatened": 6721,
      "fleeting": 6722,
      "Of": 6723,
      "pest": 6724,
      "crumbling": 6725,
      "tradition": 6726,
      "warehouse": 6727,
      "intrigued": 6728,
      "$$$$$": 6729,
      "historic": 6730,
      "analyze": 6731,
      "breathing": 6732,
      "supply": 6733,
      "stake": 6734,
      "hecy": 6735,
      "charged": 6736,
      "emerging": 6737,
      "optimism": 6738,
      "JA": 6739,
      "examining": 6740,
      "swim": 6741,
      "udes": 6742,
      "airs": 6743,
      "companied": 6744,
      "slice": 6745,
      "lush": 6746,
      "unwavering": 6747,
      "ometry": 6748,
      "igno": 6749,
      "soldi": 6750,
      "trusted": 6751,
      "blast": 6752,
      "skyscr": 6753,
      "senses": 6754,
      "astern": 6755,
      "damp": 6756,
      "arled": 6757,
      "disaster": 6758,
      "scattered": 6759,
      "Storm": 6760,
      "nostalg": 6761,
      "lessons": 6762,
      "glowed": 6763,
      "pattern": 6764,
      "farming": 6765,
      "Clim": 6766,
      "violence": 6767,
      "document": 6768,
      "Lang": 6769,
      "limited": 6770,
      "sustainability": 6771,
      "hone": 6772,
      "version": 6773,
      "equation": 6774,
      "equipped": 6775,
      "examine": 6776,
      "vin": 6777,
      "Something": 6778,
      "Atl": 6779,
      "Ery": 6780,
      "flicker": 6781,
      "pushing": 6782,
      "MAX": 6783,
      "roots": 6784,
      "flowing": 6785,
      "attr": 6786,
      "slumber": 6787,
      "Eryndor": 6788,
      "Ca": 6789,
      "accompanied": 6790,
      "discussions": 6791,
      "rabbit": 6792,
      "Umbrella": 6793,
      "God": 6794,
      "ampion": 6795,
      "trick": 6796,
      "Frank": 6797,
      "flame": 6798,
      "China": 6799,
      "Bus": 6800,
      "cooperation": 6801,
      "Deep": 6802,
      "session": 6803,
      "ruption": 6804,
      "vehicle": 6805,
      "dad": 6806,
      "olution": 6807,
      "clut": 6808,
      "singing": 6809,
      "cautiously": 6810,
      "Nut": 6811,
      "earning": 6812,
      "enses": 6813,
      "lasting": 6814,
      "shock": 6815,
      "galaxies": 6816,
      "Any": 6817,
      "Ryder": 6818,
      "ani": 6819,
      "locations": 6820,
      "accurately": 6821,
      "lifting": 6822,
      "acqu": 6823,
      "athlet": 6824,
      "Team": 6825,
      "essentially": 6826,
      "alike": 6827,
      "expecting": 6828,
      "tricks": 6829,
      "virtual": 6830,
      "uge": 6831,
      "majest": 6832,
      "cinema": 6833,
      "Given": 6834,
      "cular": 6835,
      "dut": 6836,
      "users": 6837,
      "obst": 6838,
      "alternative": 6839,
      "warrior": 6840,
      "OL": 6841,
      "please": 6842,
      "pursuit": 6843,
      "Design": 6844,
      "analyzing": 6845,
      "neutral": 6846,
      "enemy": 6847,
      "rever": 6848,
      "ilit": 6849,
      "intu": 6850,
      "tember": 6851,
      "property": 6852,
      "occurred": 6853,
      "September": 6854,
      "Hub": 6855,
      "prob": 6856,
      "stro": 6857,
      "overcome": 6858,
      "speaker": 6859,
      "oasis": 6860,
      "loom": 6861,
      "exhaust": 6862,
      "tomat": 6863,
      "raises": 6864,
      "minor": 6865,
      "masterful": 6866,
      "lips": 6867,
      "bits": 6868,
      "ays": 6869,
      "Sounds": 6870,
      "younger": 6871,
      "wafted": 6872,
      "pedition": 6873,
      "Room": 6874,
      "March": 6875,
      "Ocean": 6876,
      "Wed": 6877,
      "quantity": 6878,
      "recorded": 6879,
      "distribution": 6880,
      "sold": 6881,
      "oky": 6882,
      "marketing": 6883,
      "exercises": 6884,
      "batt": 6885,
      "texture": 6886,
      "loyalty": 6887,
      "Met": 6888,
      "Rise": 6889,
      "lightning": 6890,
      "matches": 6891,
      "Transition": 6892,
      "explanation": 6893,
      "Role": 6894,
      "milk": 6895,
      "breakfast": 6896,
      "narrowed": 6897,
      "January": 6898,
      "CONTIN": 6899,
      "Gl": 6900,
      "$$$$": 6901,
      "Magic": 6902,
      "elderly": 6903,
      "sword": 6904,
      "spar": 6905,
      "visited": 6906,
      "agreed": 6907,
      "Cultural": 6908,
      "Grou": 6909,
      "AST": 6910,
      "aircraft": 6911,
      "balanced": 6912,
      "ARTMENT": 6913,
      "Apr": 6914,
      "colate": 6915,
      "credits": 6916,
      "desolate": 6917,
      "CONTINU": 6918,
      "ression": 6919,
      "governance": 6920,
      "dod": 6921,
      "upbeat": 6922,
      "crete": 6923,
      "bank": 6924,
      "inspiration": 6925,
      "modi": 6926,
      "maxim": 6927,
      "issions": 6928,
      "predictable": 6929,
      "RI": 6930,
      "mson": 6931,
      "twists": 6932,
      "graphical": 6933,
      "Spr": 6934,
      "fal": 6935,
      "ug": 6936,
      "mole": 6937,
      "attacks": 6938,
      "April": 6939,
      "odies": 6940,
      "uster": 6941,
      "Sunny": 6942,
      "More": 6943,
      "lift": 6944,
      "apply": 6945,
      "says": 6946,
      "audible": 6947,
      "varying": 6948,
      "vegetables": 6949,
      "Mir": 6950,
      "Vir": 6951,
      "Watch": 6952,
      "gained": 6953,
      "Dece": 6954,
      "leadership": 6955,
      "pollution": 6956,
      "coat": 6957,
      "Uni": 6958,
      "Ashwood": 6959,
      "Bill": 6960,
      "pool": 6961,
      "lesson": 6962,
      "explain": 6963,
      "marg": 6964,
      "populations": 6965,
      "captivating": 6966,
      "vulnerable": 6967,
      "goodbye": 6968,
      "Past": 6969,
      "otes": 6970,
      "sensation": 6971,
      "July": 6972,
      "approximately": 6973,
      "pocket": 6974,
      "malevol": 6975,
      "fitness": 6976,
      "nervous": 6977,
      "SP": 6978,
      "addition": 6979,
      "broke": 6980,
      "Finn": 6981,
      "typical": 6982,
      "incorporating": 6983,
      "Town": 6984,
      "aroma": 6985,
      "scared": 6986,
      "symptoms": 6987,
      "oxy": 6988,
      "quarters": 6989,
      "Mexican": 6990,
      "cars": 6991,
      "nur": 6992,
      "eras": 6993,
      "polis": 6994,
      "Two": 6995,
      "cel": 6996,
      "fought": 6997,
      "democracy": 6998,
      "stable": 6999,
      "acles": 7000,
      "decay": 7001,
      "superhero": 7002,
      "industries": 7003,
      "bravery": 7004,
      "Fur": 7005,
      "terns": 7006,
      "inted": 7007,
      "fication": 7008,
      "Comedy": 7009,
      "faith": 7010,
      "Wednes": 7011,
      "Sub": 7012,
      "minds": 7013,
      "headed": 7014,
      "respective": 7015,
      "ATION": 7016,
      "ificent": 7017,
      "relief": 7018,
      "opposite": 7019,
      "achieving": 7020,
      "Palace": 7021,
      "anges": 7022,
      "vine": 7023,
      "olph": 7024,
      "Context": 7025,
      "mitig": 7026,
      "Summary": 7027,
      "arios": 7028,
      "consume": 7029,
      "ONED": 7030,
      "walker": 7031,
      "cutting": 7032,
      "ABAND": 7033,
      "evoke": 7034,
      "sell": 7035,
      "collap": 7036,
      "intentions": 7037,
      "Malakai": 7038,
      "chasing": 7039,
      "ester": 7040,
      "ABANDONED": 7041,
      "abol": 7042,
      "excitedly": 7043,
      "Ton": 7044,
      "lanterns": 7045,
      "alleyway": 7046,
      "fting": 7047,
      "nium": 7048,
      "shattered": 7049,
      "foods": 7050,
      "Wednesday": 7051,
      "gods": 7052,
      "aved": 7053,
      "Final": 7054,
      "tucked": 7055,
      "theories": 7056,
      "beacon": 7057,
      "spl": 7058,
      "ongo": 7059,
      "growled": 7060,
      "thorough": 7061,
      "transitions": 7062,
      "records": 7063,
      "inhabitants": 7064,
      "eline": 7065,
      "porch": 7066,
      "Environmental": 7067,
      "debaters": 7068,
      "reminding": 7069,
      "Bridge": 7070,
      "bush": 7071,
      "theater": 7072,
      "smir": 7073,
      "uristic": 7074,
      "marine": 7075,
      "established": 7076,
      "flat": 7077,
      "standard": 7078,
      "equations": 7079,
      "traveler": 7080,
      "Asia": 7081,
      "rely": 7082,
      "unle": 7083,
      "gray": 7084,
      "hiking": 7085,
      "advis": 7086,
      "quad": 7087,
      "glances": 7088,
      "highlighted": 7089,
      "Carol": 7090,
      "Woods": 7091,
      "aways": 7092,
      "replaced": 7093,
      "manner": 7094,
      "thousand": 7095,
      "completely": 7096,
      "Log": 7097,
      "oak": 7098,
      "odes": 7099,
      "thri": 7100,
      "wearing": 7101,
      "cursed": 7102,
      "messy": 7103,
      "glittering": 7104,
      "inations": 7105,
      "envelop": 7106,
      "advoc": 7107,
      "dered": 7108,
      "foreb": 7109,
      "parties": 7110,
      "cheering": 7111,
      "SHO": 7112,
      "illy": 7113,
      "containing": 7114,
      "pull": 7115,
      "squirrel": 7116,
      "During": 7117,
      "guy": 7118,
      "technique": 7119,
      "miss": 7120,
      "trembling": 7121,
      "Fun": 7122,
      "Tales": 7123,
      "sits": 7124,
      "ultimate": 7125,
      "lingu": 7126,
      "arguing": 7127,
      "survive": 7128,
      "memorable": 7129,
      "KA": 7130,
      "despair": 7131,
      "foreboding": 7132,
      "itoring": 7133,
      "Exper": 7134,
      "Fam": 7135,
      "aco": 7136,
      "Within": 7137,
      "celebration": 7138,
      "nutri": 7139,
      "frustrated": 7140,
      "Romance": 7141,
      "recipe": 7142,
      "immediately": 7143,
      "Sl": 7144,
      "resulting": 7145,
      "sir": 7146,
      "itely": 7147,
      "anti": 7148,
      "energetic": 7149,
      "corners": 7150,
      "elev": 7151,
      "sang": 7152,
      "third": 7153,
      "reasons": 7154,
      "somehow": 7155,
      "signal": 7156,
      "Unfortunately": 7157,
      "Ere": 7158,
      "gare": 7159,
      "heric": 7160,
      "sunset": 7161,
      "basket": 7162,
      "wildflowers": 7163,
      "nice": 7164,
      "coach": 7165,
      "2020": 7166,
      "framework": 7167,
      "Rob": 7168,
      "Whe": 7169,
      "decide": 7170,
      "tower": 7171,
      "Willi": 7172,
      "Washing": 7173,
      "inexplic": 7174,
      "backgrounds": 7175,
      "atography": 7176,
      "magnificent": 7177,
      "tober": 7178,
      "glance": 7179,
      "relatable": 7180,
      "desperation": 7181,
      "Somnium": 7182,
      "JAX": 7183,
      "Master": 7184,
      "treats": 7185,
      "thank": 7186,
      "covery": 7187,
      "roles": 7188,
      "requirements": 7189,
      "townsfolk": 7190,
      "Pop": 7191,
      "VER": 7192,
      "letters": 7193,
      "Impact": 7194,
      "Harry": 7195,
      "Lond": 7196,
      "kick": 7197,
      "chim": 7198,
      "advancements": 7199,
      "Climate": 7200,
      "luck": 7201,
      "wich": 7202,
      "stall": 7203,
      "interaction": 7204,
      "Blackjack": 7205,
      "celebrated": 7206,
      "Edu": 7207,
      "scenarios": 7208,
      "reported": 7209,
      "landed": 7210,
      "screams": 7211,
      "educational": 7212,
      "Middle": 7213,
      "labyrinthine": 7214,
      "Using": 7215,
      "jump": 7216,
      "lic": 7217,
      "onomy": 7218,
      "Beh": 7219,
      "tranqu": 7220,
      "crisis": 7221,
      "shelves": 7222,
      "thors": 7223,
      "phy": 7224,
      "pauses": 7225,
      "USE": 7226,
      "fueled": 7227,
      "Crystal": 7228,
      "Zay": 7229,
      "peak": 7230,
      "quantum": 7231,
      "aze": 7232,
      "Willowdale": 7233,
      "`,": 7234,
      "pour": 7235,
      "gram": 7236,
      "Color": 7237,
      "excess": 7238,
      "borders": 7239,
      "desires": 7240,
      "Sym": 7241,
      "adorned": 7242,
      "disappeared": 7243,
      "accuracy": 7244,
      "rooted": 7245,
      "pecu": 7246,
      "brut": 7247,
      "penal": 7248,
      "hugged": 7249,
      "Blue": 7250,
      "peculiar": 7251,
      "Cr": 7252,
      "meal": 7253,
      "creaky": 7254,
      "networks": 7255,
      "starlight": 7256,
      "eless": 7257,
      "unusual": 7258,
      "Land": 7259,
      "craw": 7260,
      "uddled": 7261,
      "severe": 7262,
      "December": 7263,
      "grows": 7264,
      "athroom": 7265,
      "possibility": 7266,
      "summon": 7267,
      "sacred": 7268,
      "turing": 7269,
      "personality": 7270,
      "striking": 7271,
      "itution": 7272,
      "complic": 7273,
      "blan": 7274,
      "prison": 7275,
      "Weight": 7276,
      "warfare": 7277,
      "navigation": 7278,
      "metro": 7279,
      "engineer": 7280,
      "schedule": 7281,
      "October": 7282,
      "hosp": 7283,
      "raine": 7284,
      "Brave": 7285,
      "ole": 7286,
      "idation": 7287,
      "Ryker": 7288,
      "laboration": 7289,
      "inexplicable": 7290,
      "Bet": 7291,
      "Rout": 7292,
      "brid": 7293,
      "cro": 7294,
      "emissions": 7295,
      "resonate": 7296,
      "willingness": 7297,
      "Govern": 7298,
      "commer": 7299,
      "variety": 7300,
      "casual": 7301,
      "classi": 7302,
      "azy": 7303,
      "spots": 7304,
      "surprised": 7305,
      "weathered": 7306,
      "Personal": 7307,
      "pil": 7308,
      "clues": 7309,
      "cruel": 7310,
      "Iron": 7311,
      "smiles": 7312,
      "cycl": 7313,
      "murmur": 7314,
      "confidently": 7315,
      "mathematics": 7316,
      "isolation": 7317,
      "patients": 7318,
      "missed": 7319,
      "messages": 7320,
      "Transform": 7321,
      "thrive": 7322,
      "Drama": 7323,
      "cottage": 7324,
      "Washington": 7325,
      "pressive": 7326,
      "originally": 7327,
      "Celsius": 7328,
      "gebra": 7329,
      "19th": 7330,
      "restless": 7331,
      "suitable": 7332,
      "models": 7333,
      "longing": 7334,
      "Quantum": 7335,
      "emphasize": 7336,
      "extraordinary": 7337,
      "Trade": 7338,
      "East": 7339,
      "resc": 7340,
      "emotionally": 7341,
      "garet": 7342,
      "Er": 7343,
      "guardian": 7344,
      "sandwich": 7345,
      "stretching": 7346,
      "spraw": 7347,
      "measures": 7348,
      "Read": 7349,
      "atus": 7350,
      "unlock": 7351,
      "ante": 7352,
      "falling": 7353,
      "flew": 7354,
      "seasoned": 7355,
      "Foc": 7356,
      "Jackson": 7357,
      "Revolution": 7358,
      "deliberate": 7359,
      "Sal": 7360,
      "gear": 7361,
      "Stu": 7362,
      "SC": 7363,
      "McC": 7364,
      "knock": 7365,
      "height": 7366,
      "enters": 7367,
      "mead": 7368,
      "overhead": 7369,
      "passage": 7370,
      "harmon": 7371,
      "harness": 7372,
      "birthday": 7373,
      "marginal": 7374,
      "Mart": 7375,
      "compelling": 7376,
      "contentment": 7377,
      "majestic": 7378,
      "purposes": 7379,
      "roads": 7380,
      "Pac": 7381,
      "gives": 7382,
      "ife": 7383,
      "chann": 7384,
      "flashing": 7385,
      "consistent": 7386,
      "President": 7387,
      "mm": 7388,
      "vessel": 7389,
      "mistry": 7390,
      "lurking": 7391,
      "lyn": 7392,
      "fantastic": 7393,
      "romantic": 7394,
      "Est": 7395,
      "Gadget": 7396,
      "forcing": 7397,
      "benefit": 7398,
      "honey": 7399,
      "vig": 7400,
      "request": 7401,
      "guitar": 7402,
      "futuristic": 7403,
      "Event": 7404,
      "Kim": 7405,
      "unar": 7406,
      "weave": 7407,
      "phic": 7408,
      "pread": 7409,
      "standards": 7410,
      "install": 7411,
      "Tommy": 7412,
      "shifted": 7413,
      "Planet": 7414,
      "spin": 7415,
      "storage": 7416,
      "route": 7417,
      "Healthcare": 7418,
      "Que": 7419,
      "bike": 7420,
      "victor": 7421,
      "ental": 7422,
      "oxygen": 7423,
      "Bas": 7424,
      "alert": 7425,
      "load": 7426,
      "iveness": 7427,
      "realms": 7428,
      "renewed": 7429,
      "Recognize": 7430,
      "trop": 7431,
      "plent": 7432,
      "asts": 7433,
      "managing": 7434,
      "Mic": 7435,
      "NE": 7436,
      "icting": 7437,
      "spat": 7438,
      "teen": 7439,
      "themed": 7440,
      "cheered": 7441,
      "checking": 7442,
      "ROOM": 7443,
      "defined": 7444,
      "Moderator": 7445,
      "nit": 7446,
      "drinking": 7447,
      "candidate": 7448,
      "Scient": 7449,
      "career": 7450,
      "mastering": 7451,
      "Business": 7452,
      "Mel": 7453,
      "pizza": 7454,
      "agu": 7455,
      "Bri": 7456,
      "Ill": 7457,
      "kes": 7458,
      "selling": 7459,
      "relent": 7460,
      "factor": 7461,
      "occurrences": 7462,
      "Az": 7463,
      "ctic": 7464,
      "APARTMENT": 7465,
      "travelers": 7466,
      "habits": 7467,
      "enorm": 7468,
      "pling": 7469,
      "hypo": 7470,
      "shifting": 7471,
      "\").": 7472,
      "DR": 7473,
      "Museum": 7474,
      "pi": 7475,
      "internet": 7476,
      "Coy": 7477,
      "cinematography": 7478,
      "tightly": 7479,
      "fice": 7480,
      "ym": 7481,
      "phony": 7482,
      "clothes": 7483,
      "rub": 7484,
      "adventurer": 7485,
      "slo": 7486,
      "forgiving": 7487,
      "unfolding": 7488,
      "shouted": 7489,
      "huddled": 7490,
      "burn": 7491,
      "hug": 7492,
      "III": 7493,
      "campaign": 7494,
      "ende": 7495,
      "trends": 7496,
      "carved": 7497,
      "reaches": 7498,
      "sensed": 7499,
      "amm": 7500,
      "los": 7501,
      "suspense": 7502,
      "uz": 7503,
      "ventured": 7504,
      "attend": 7505,
      "matrix": 7506,
      "generally": 7507,
      "dropped": 7508,
      "Aby": 7509,
      "swift": 7510,
      "photograph": 7511,
      "Examples": 7512,
      "BB": 7513,
      "ALL": 7514,
      "Eclip": 7515,
      "Living": 7516,
      "shaking": 7517,
      "pursu": 7518,
      "reveals": 7519,
      "focuses": 7520,
      "Engine": 7521,
      "cons": 7522,
      "shiny": 7523,
      "finity": 7524,
      "enthusiasts": 7525,
      "Avoid": 7526,
      "hearing": 7527,
      "nuclear": 7528,
      "substance": 7529,
      "Florida": 7530,
      "heal": 7531,
      "mented": 7532,
      "Intel": 7533,
      "bris": 7534,
      "waterfall": 7535,
      "particles": 7536,
      "respectful": 7537,
      "opponents": 7538,
      "Commun": 7539,
      "Pot": 7540,
      "Thurs": 7541,
      "Group": 7542,
      "Psych": 7543,
      "compared": 7544,
      "duction": 7545,
      "putting": 7546,
      "timeless": 7547,
      "instructions": 7548,
      "ideal": 7549,
      "ERT": 7550,
      "cognitive": 7551,
      "recognized": 7552,
      "investigation": 7553,
      "revelation": 7554,
      "London": 7555,
      "rim": 7556,
      "lighting": 7557,
      "facilit": 7558,
      "worthy": 7559,
      "featured": 7560,
      "occasional": 7561,
      "uded": 7562,
      "Convert": 7563,
      "holders": 7564,
      "Import": 7565,
      "failure": 7566,
      "twinkled": 7567,
      "Ur": 7568,
      "fat": 7569,
      "nations": 7570,
      "mixed": 7571,
      "unders": 7572,
      "suspic": 7573,
      "suffering": 7574,
      "Pen": 7575,
      "cunning": 7576,
      "arrive": 7577,
      "impressed": 7578,
      "houses": 7579,
      "Abyss": 7580,
      "Thursday": 7581,
      "PH": 7582,
      "2010": 7583,
      "vention": 7584,
      "existential": 7585,
      "Dreams": 7586,
      "hopeful": 7587,
      "focusing": 7588,
      "phenomena": 7589,
      "algorithms": 7590,
      "poured": 7591,
      "Wal": 7592,
      "Zare": 7593,
      "holo": 7594,
      "aimed": 7595,
      "anna": 7596,
      "________": 7597,
      "icted": 7598,
      "fascinated": 7599,
      "referred": 7600,
      "tastes": 7601,
      "infl": 7602,
      "goti": 7603,
      "planned": 7604,
      "catastro": 7605,
      "matters": 7606,
      "measured": 7607,
      "Idi": 7608,
      "unforgiving": 7609,
      "blind": 7610,
      "refused": 7611,
      "burned": 7612,
      "Among": 7613,
      "glinting": 7614,
      "preparing": 7615,
      "Stormy": 7616,
      "victorious": 7617,
      "auma": 7618,
      "malevolent": 7619,
      "WAR": 7620,
      "alia": 7621,
      "ortex": 7622,
      "chocolate": 7623,
      "trigg": 7624,
      "manipulation": 7625,
      "establish": 7626,
      "Dif": 7627,
      "icking": 7628,
      "chorus": 7629,
      "underlying": 7630,
      "aunting": 7631,
      "chamber": 7632,
      "none": 7633,
      "joke": 7634,
      "DI": 7635,
      "Hand": 7636,
      "lemon": 7637,
      "influential": 7638,
      "Paris": 7639,
      "universal": 7640,
      "Find": 7641,
      "hang": 7642,
      "Educ": 7643,
      "Post": 7644,
      "decre": 7645,
      "spection": 7646,
      "(%)": 7647,
      "brightly": 7648,
      "classm": 7649,
      "eu": 7650,
      "gang": 7651,
      "pink": 7652,
      "atche": 7653,
      "moves": 7654,
      "dedication": 7655,
      "roll": 7656,
      "traveling": 7657,
      "fruits": 7658,
      "Self": 7659,
      "Sir": 7660,
      "chess": 7661,
      "clearly": 7662,
      "crafting": 7663,
      "rador": 7664,
      "aml": 7665,
      "atmospheric": 7666,
      "guidelines": 7667,
      "definitely": 7668,
      "Yet": 7669,
      "floated": 7670,
      "outs": 7671,
      "curse": 7672,
      "iqued": 7673,
      "descended": 7674,
      "website": 7675,
      "Further": 7676,
      "Nove": 7677,
      "owing": 7678,
      "estate": 7679,
      "indicating": 7680,
      "plenty": 7681,
      "%.": 7682,
      "Rich": 7683,
      "Tips": 7684,
      "cake": 7685,
      "stack": 7686,
      "stared": 7687,
      "armed": 7688,
      "positions": 7689,
      "_____": 7690,
      "ruthless": 7691,
      "November": 7692,
      "Giz": 7693,
      "Jas": 7694,
      "bringing": 7695,
      "scrat": 7696,
      "McCoy": 7697,
      "colonial": 7698,
      "enormous": 7699,
      "inate": 7700,
      "greeted": 7701,
      "2014": 7702,
      "offic": 7703,
      "Eldrador": 7704,
      "agged": 7705,
      "Stud": 7706,
      "initiatives": 7707,
      "2013": 7708,
      "momentum": 7709,
      "included": 7710,
      "promises": 7711,
      "HOUSE": 7712,
      "songs": 7713,
      "surprising": 7714,
      "Lila": 7715,
      "dwell": 7716,
      "comic": 7717,
      "2019": 7718,
      "dedicated": 7719,
      "crossed": 7720,
      "========": 7721,
      "lux": 7722,
      "encompasses": 7723,
      "stakes": 7724,
      "estim": 7725,
      "exploitation": 7726,
      "crimson": 7727,
      "netic": 7728,
      "emphasizing": 7729,
      "fruit": 7730,
      "distr": 7731,
      "blazing": 7732,
      "potentially": 7733,
      "bakery": 7734,
      "appar": 7735,
      "sorrow": 7736,
      "Media": 7737,
      "avoiding": 7738,
      "dated": 7739,
      "tender": 7740,
      "melodies": 7741,
      "affected": 7742,
      "Understand": 7743,
      "component": 7744,
      "Back": 7745,
      "Cam": 7746,
      "GRO": 7747,
      "Vi": 7748,
      "Intern": 7749,
      "bruary": 7750,
      "equally": 7751,
      "combat": 7752,
      "taxes": 7753,
      "imposing": 7754,
      "intuitive": 7755,
      "ballo": 7756,
      "facility": 7757,
      "industrial": 7758,
      "neighb": 7759,
      "February": 7760,
      "Dave": 7761,
      "scor": 7762,
      "controlled": 7763,
      "Gro": 7764,
      "canvas": 7765,
      "ruins": 7766,
      "Organ": 7767,
      "jac": 7768,
      "diag": 7769,
      "Zip": 7770,
      "awk": 7771,
      "France": 7772,
      "improved": 7773,
      "pounded": 7774,
      "sneered": 7775,
      "envy": 7776,
      "oral": 7777,
      "divid": 7778,
      "oppressive": 7779,
      "prove": 7780,
      "England": 7781,
      "witnessed": 7782,
      "couch": 7783,
      "')": 7784,
      "hift": 7785,
      "hesitant": 7786,
      "Prepar": 7787,
      "intriguing": 7788,
      "Pan": 7789,
      "QU": 7790,
      "acting": 7791,
      "saf": 7792,
      "navigates": 7793,
      "makeshift": 7794,
      "recognize": 7795,
      "Polit": 7796,
      "stirred": 7797,
      "repeated": 7798,
      "cence": 7799,
      "solved": 7800,
      "cultiv": 7801,
      "processing": 7802,
      "Dead": 7803,
      "Mexico": 7804,
      "Langu": 7805,
      "'.": 7806,
      "Both": 7807,
      "Hill": 7808,
      "Mach": 7809,
      "Part": 7810,
      "proceed": 7811,
      "normal": 7812,
      "supplies": 7813,
      "interpretation": 7814,
      "Kana": 7815,
      "ki": 7816,
      "uous": 7817,
      "monitoring": 7818,
      "swung": 7819,
      "mechanics": 7820,
      "anywhere": 7821,
      "2018": 7822,
      "answering": 7823,
      "Soci": 7824,
      "reflected": 7825,
      "designing": 7826,
      "WN": 7827,
      "united": 7828,
      "compare": 7829,
      "synthesis": 7830,
      "Snowy": 7831,
      "International": 7832,
      "Civ": 7833,
      "Long": 7834,
      "Chall": 7835,
      "anthrop": 7836,
      "Austr": 7837,
      "piqued": 7838,
      "chord": 7839,
      "ensional": 7840,
      "emerge": 7841,
      "speaks": 7842,
      "remaining": 7843,
      "Sophie": 7844,
      "preserving": 7845,
      "dinosaur": 7846,
      "crops": 7847,
      "William": 7848,
      "antically": 7849,
      "Comput": 7850,
      "polar": 7851,
      "assistant": 7852,
      "Modern": 7853,
      "Ever": 7854,
      "dess": 7855,
      "tones": 7856,
      "percept": 7857,
      "2012": 7858,
      "month": 7859,
      "puzzle": 7860,
      "rael": 7861,
      "truck": 7862,
      "terrible": 7863,
      "ongoing": 7864,
      "sque": 7865,
      "staff": 7866,
      "umped": 7867,
      "2011": 7868,
      "approaching": 7869,
      "Historic": 7870,
      "Eco": 7871,
      "PLA": 7872,
      "marking": 7873,
      "marvel": 7874,
      "discovering": 7875,
      "accompl": 7876,
      "deals": 7877,
      "biases": 7878,
      "affects": 7879,
      "Sales": 7880,
      "ugg": 7881,
      "omb": 7882,
      "Character": 7883,
      "zes": 7884,
      "Chen": 7885,
      "Contin": 7886,
      "Pet": 7887,
      "eternal": 7888,
      "contest": 7889,
      "foss": 7890,
      "observ": 7891,
      "habitats": 7892,
      "GE": 7893,
      "Hy": 7894,
      "Lakes": 7895,
      "Show": 7896,
      "strangers": 7897,
      "flair": 7898,
      "celebrate": 7899,
      "glasses": 7900,
      "Tonight": 7901,
      "Wy": 7902,
      "dared": 7903,
      "mile": 7904,
      "gnarled": 7905,
      "philosophy": 7906,
      "esterday": 7907,
      "andom": 7908,
      "weird": 7909,
      "ashes": 7910,
      "shops": 7911,
      "invited": 7912,
      "attract": 7913,
      "asted": 7914,
      "Ember": 7915,
      "Blo": 7916,
      "stillness": 7917,
      "adds": 7918,
      "evolved": 7919,
      "grim": 7920,
      "Michael": 7921,
      "nutrition": 7922,
      "catastrophic": 7923,
      "Bed": 7924,
      "consumption": 7925,
      "Kanaq": 7926,
      "Fog": 7927,
      "FOR": 7928,
      "Miss": 7929,
      "ratio": 7930,
      "wri": 7931,
      "intricacies": 7932,
      "halls": 7933,
      "gem": 7934,
      "conventional": 7935,
      "obstacles": 7936,
      "exact": 7937,
      "ARCH": 7938,
      "studied": 7939,
      "bags": 7940,
      "sacrifice": 7941,
      "confronted": 7942,
      "SU": 7943,
      "ders": 7944,
      "sauce": 7945,
      "ario": 7946,
      "nova": 7947,
      "morality": 7948,
      "audiences": 7949,
      "strike": 7950,
      "manipulate": 7951,
      "seamlessly": 7952,
      "classmates": 7953,
      "gates": 7954,
      "rural": 7955,
      "frantically": 7956,
      "precise": 7957,
      "sounded": 7958,
      "cheers": 7959,
      "destiny": 7960,
      "engineers": 7961,
      "ardians": 7962,
      "variables": 7963,
      "oss": 7964,
      "compar": 7965,
      "easier": 7966,
      "oh": 7967,
      "reactions": 7968,
      "ctors": 7969,
      "aphor": 7970,
      "dign": 7971,
      "organized": 7972,
      "opinion": 7973,
      "resistance": 7974,
      "fishing": 7975,
      "vings": 7976,
      "illusion": 7977,
      "typing": 7978,
      "refresh": 7979,
      "ushi": 7980,
      "trails": 7981,
      "iko": 7982,
      "Clou": 7983,
      "Rome": 7984,
      "preced": 7985,
      "Types": 7986,
      "lide": 7987,
      "lingers": 7988,
      "posal": 7989,
      "portray": 7990,
      "glimmer": 7991,
      "wrist": 7992,
      "plane": 7993,
      "rooms": 7994,
      "genres": 7995,
      "recently": 7996,
      "Curi": 7997,
      "Toky": 7998,
      "excl": 7999,
      "presidential": 8000,
      "summary": 8001,
      "Short": 8002,
      "roller": 8003,
      "spaceship": 8004,
      "coastal": 8005,
      "Tokyo": 8006,
      "Bel": 8007,
      "Cy": 8008,
      "Ken": 8009,
      "lob": 8010,
      "blocks": 8011,
      "ministr": 8012,
      "acknowledging": 8013,
      "Building": 8014,
      "JSON": 8015,
      "tent": 8016,
      "leep": 8017,
      "deter": 8018,
      "integrity": 8019,
      "Amazon": 8020,
      "Pacific": 8021,
      "Ethan": 8022,
      "TRAN": 8023,
      "wides": 8024,
      "Sea": 8025,
      "Highway": 8026,
      "pulse": 8027,
      "sprawling": 8028,
      "widespread": 8029,
      "ores": 8030,
      "Kai": 8031,
      "Strateg": 8032,
      "demonstrated": 8033,
      "ominous": 8034,
      "beverage": 8035,
      "heartbeat": 8036,
      "competitive": 8037,
      "straightforward": 8038,
      "qualities": 8039,
      "Aust": 8040,
      "Cas": 8041,
      "Mia": 8042,
      "shroud": 8043,
      "White": 8044,
      "attic": 8045,
      "Windy": 8046,
      "chur": 8047,
      "champion": 8048,
      "span": 8049,
      "authors": 8050,
      "covers": 8051,
      "Summarize": 8052,
      "scope": 8053,
      "moderate": 8054,
      "cope": 8055,
      "forming": 8056,
      "illuminating": 8057,
      "Eden": 8058,
      "ensures": 8059,
      "carvings": 8060,
      "periods": 8061,
      "farmers": 8062,
      "Rainy": 8063,
      "theoretical": 8064,
      "TRANS": 8065,
      "Tree": 8066,
      "Theory": 8067,
      "collaboration": 8068,
      "appearing": 8069,
      "juice": 8070,
      "Whether": 8071,
      "ius": 8072,
      "uity": 8073,
      "wol": 8074,
      "urgent": 8075,
      "umb": 8076,
      "Because": 8077,
      "democratic": 8078,
      ".'": 8079,
      "keys": 8080,
      "Incre": 8081,
      "commonly": 8082,
      "descriptions": 8083,
      "electrical": 8084,
      "causes": 8085,
      "leaning": 8086,
      "Terry": 8087,
      "concrete": 8088,
      "shrugged": 8089,
      "coaster": 8090,
      "chemistry": 8091,
      "Union": 8092,
      "circle": 8093,
      "adults": 8094,
      "enduring": 8095,
      "sche": 8096,
      "orses": 8097,
      "itarian": 8098,
      "exceptional": 8099,
      "taught": 8100,
      "enched": 8101,
      "Conf": 8102,
      "specialized": 8103,
      "Leon": 8104,
      "breaks": 8105,
      "productivity": 8106,
      "uncovered": 8107,
      "commercial": 8108,
      "marginalized": 8109,
      "Furthermore": 8110,
      "KINS": 8111,
      "ience": 8112,
      "sters": 8113,
      "assign": 8114,
      "concis": 8115,
      "email": 8116,
      "hydr": 8117,
      "subsequ": 8118,
      "reduced": 8119,
      "teeth": 8120,
      "arring": 8121,
      "Pratche": 8122,
      "amazed": 8123,
      "female": 8124,
      "Aether": 8125,
      "agues": 8126,
      "accessible": 8127,
      "beckoning": 8128,
      "Pratchett": 8129,
      "shed": 8130,
      "Weather": 8131,
      "companions": 8132,
      "god": 8133,
      "wine": 8134,
      "Infinity": 8135,
      "mighty": 8136,
      "reflects": 8137,
      "pidation": 8138,
      "perce": 8139,
      "shatter": 8140,
      "scrib": 8141,
      "Acade": 8142,
      "Op": 8143,
      "ulous": 8144,
      "ups": 8145,
      "woke": 8146,
      "parad": 8147,
      "implementing": 8148,
      "vity": 8149,
      "sunshine": 8150,
      "organic": 8151,
      "Speci": 8152,
      "captured": 8153,
      "vaccin": 8154,
      "lers": 8155,
      "laid": 8156,
      "trepidation": 8157,
      "tries": 8158,
      "continent": 8159,
      "_______": 8160,
      "quietly": 8161,
      "holographic": 8162,
      "Cour": 8163,
      "ram": 8164,
      "ola": 8165,
      "strain": 8166,
      "engines": 8167,
      "Oracle": 8168,
      "researchers": 8169,
      "Eclipse": 8170,
      "safely": 8171,
      "gover": 8172,
      "kin": 8173,
      "spices": 8174,
      "boards": 8175,
      "intertw": 8176,
      "debates": 8177,
      "flashlight": 8178,
      "FT": 8179,
      "aple": 8180,
      "somewhere": 8181,
      "reader": 8182,
      "markets": 8183,
      "sweat": 8184,
      "JENNY": 8185,
      "reshold": 8186,
      "privilege": 8187,
      "concisely": 8188,
      "Bay": 8189,
      "eled": 8190,
      "raise": 8191,
      "pha": 8192,
      "currency": 8193,
      "Philos": 8194,
      "Trek": 8195,
      "('": 8196,
      "abstract": 8197,
      "tests": 8198,
      "hunting": 8199,
      "stellar": 8200,
      "application": 8201,
      "achieved": 8202,
      "uzu": 8203,
      "BBQ": 8204,
      "liked": 8205,
      "negoti": 8206,
      "mistake": 8207,
      "Aerospace": 8208,
      "skyscrapers": 8209,
      "Idiomatic": 8210,
      "500": 8211,
      "Braz": 8212,
      "anda": 8213,
      "refuge": 8214,
      "counts": 8215,
      "injury": 8216,
      "television": 8217,
      "Air": 8218,
      "Zuzu": 8219,
      "strol": 8220,
      "berries": 8221,
      "meditation": 8222,
      "soldiers": 8223,
      "Native": 8224,
      "elim": 8225,
      "protocol": 8226,
      "soared": 8227,
      "rous": 8228,
      "ials": 8229,
      "sibly": 8230,
      "correctly": 8231,
      "witch": 8232,
      "Ven": 8233,
      "rav": 8234,
      "regre": 8235,
      "wants": 8236,
      "Did": 8237,
      "plastic": 8238,
      "arrange": 8239,
      "flexibility": 8240,
      "transparency": 8241,
      "Greek": 8242,
      "JENKINS": 8243,
      "prophecy": 8244,
      "Foggy": 8245,
      "Dem": 8246,
      "rushed": 8247,
      "orb": 8248,
      "abor": 8249,
      "ophist": 8250,
      "radio": 8251,
      "Pizza": 8252,
      "ligh": 8253,
      "realities": 8254,
      "onses": 8255,
      "Alice": 8256,
      "Actually": 8257,
      "Cloudy": 8258,
      "bears": 8259,
      "physic": 8260,
      "Biotech": 8261,
      "tactics": 8262,
      "Paul": 8263,
      "stakeholders": 8264,
      "zero": 8265,
      "inclusive": 8266,
      "bloomed": 8267,
      "Explain": 8268,
      "Grandma": 8269,
      "duty": 8270,
      "2017": 8271,
      "announced": 8272,
      "Rose": 8273,
      "rein": 8274,
      "beaming": 8275,
      "Rewrite": 8276,
      "cliff": 8277,
      "Ghost": 8278,
      "underground": 8279,
      "cord": 8280,
      "TRANSITION": 8281,
      "defeat": 8282,
      "obli": 8283,
      "equality": 8284,
      "rainbow": 8285,
      "Equ": 8286,
      "Eastern": 8287,
      "inser": 8288,
      "itors": 8289,
      "2015": 8290,
      "itorium": 8291,
      "Economic": 8292,
      "Pharm": 8293,
      "worse": 8294,
      "Invent": 8295,
      "wondered": 8296,
      "influences": 8297,
      "motivation": 8298,
      "Germany": 8299,
      "rent": 8300,
      "vend": 8301,
      "ickens": 8302,
      "biology": 8303,
      "geography": 8304,
      "Archite": 8305,
      "enab": 8306,
      "deserted": 8307,
      "exhib": 8308,
      "Russia": 8309,
      "subsequent": 8310,
      "etry": 8311,
      "ops": 8312,
      "resident": 8313,
      "corn": 8314,
      "______": 8315,
      "festival": 8316,
      "Benny": 8317,
      "OD": 8318,
      "pian": 8319,
      "rien": 8320,
      "roar": 8321,
      "fog": 8322,
      "ipping": 8323,
      "Joe": 8324,
      "responsibilities": 8325,
      "Americ": 8326,
      "petals": 8327,
      "sorcer": 8328,
      "habitat": 8329,
      "insur": 8330,
      "eros": 8331,
      "snuck": 8332,
      "patrons": 8333,
      "earthqu": 8334,
      "According": 8335,
      "isolated": 8336,
      "acknowledge": 8337,
      "bones": 8338,
      "union": 8339,
      "forestation": 8340,
      "cyber": 8341,
      "hunger": 8342,
      "melt": 8343,
      "oot": 8344,
      "wable": 8345,
      "otion": 8346,
      "mare": 8347,
      "anymore": 8348,
      "sites": 8349,
      "checked": 8350,
      "artifact": 8351,
      "procedures": 8352,
      "inn": 8353,
      "desired": 8354,
      "receive": 8355,
      "cram": 8356,
      "descent": 8357,
      "Compose": 8358,
      "heading": 8359,
      "locals": 8360,
      "gasped": 8361,
      "psychology": 8362,
      "budget": 8363,
      "Celestial": 8364,
      "trauma": 8365,
      "bored": 8366,
      "pedest": 8367,
      "borne": 8368,
      "aska": 8369,
      "Edward": 8370,
      "illuminated": 8371,
      "jazz": 8372,
      "wards": 8373,
      "stark": 8374,
      "merely": 8375,
      "responses": 8376,
      "storms": 8377,
      "culinary": 8378,
      "traits": 8379,
      "computing": 8380,
      "Ravenwood": 8381,
      "University": 8382,
      "hate": 8383,
      "participate": 8384,
      "CS": 8385,
      "sophist": 8386,
      "stumble": 8387,
      "Eliza": 8388,
      "romance": 8389,
      "Je": 8390,
      "phe": 8391,
      "owed": 8392,
      "ols": 8393,
      "portion": 8394,
      "unfolds": 8395,
      "tightened": 8396,
      "Council": 8397,
      "Brazil": 8398,
      "bay": 8399,
      "mates": 8400,
      "ventures": 8401,
      "deepest": 8402,
      "strengths": 8403,
      "metropolis": 8404,
      "Ut": 8405,
      "dress": 8406,
      "gazing": 8407,
      "rogue": 8408,
      "nuance": 8409,
      "ordered": 8410,
      "Wonder": 8411,
      "Aunt": 8412,
      "latency": 8413,
      "disorient": 8414,
      "ifications": 8415,
      "ORDER": 8416,
      "shall": 8417,
      "Disc": 8418,
      "Solitude": 8419,
      "Garage": 8420,
      "Sa": 8421,
      "Tar": 8422,
      "sick": 8423,
      "army": 8424,
      "sex": 8425,
      "indel": 8426,
      "ressive": 8427,
      "delves": 8428,
      "solace": 8429,
      "anxious": 8430,
      "politician": 8431,
      "yielding": 8432,
      "entry": 8433,
      "feather": 8434,
      "TOWN": 8435,
      "exhilar": 8436,
      "(\"": 8437,
      "lete": 8438,
      "abs": 8439,
      "demands": 8440,
      "Bathroom": 8441,
      "ambi": 8442,
      "Span": 8443,
      "placement": 8444,
      "oga": 8445,
      "biodiversity": 8446,
      "GMENT": 8447,
      "infin": 8448,
      "assem": 8449,
      "foreign": 8450,
      "calls": 8451,
      "succeed": 8452,
      "represented": 8453,
      "capitalized": 8454,
      "root": 8455,
      "foli": 8456,
      "flood": 8457,
      "Explorer": 8458,
      "minimize": 8459,
      "eggs": 8460,
      "Route": 8461,
      "Case": 8462,
      "Nat": 8463,
      "vet": 8464,
      "potato": 8465,
      "breathed": 8466,
      "tu": 8467,
      "stors": 8468,
      "empts": 8469,
      "attempts": 8470,
      "tourist": 8471,
      "scenario": 8472,
      "launched": 8473,
      "lav": 8474,
      "output": 8475,
      "shirt": 8476,
      "masterfully": 8477,
      "possessed": 8478,
      "hier": 8479,
      "saving": 8480,
      "snapped": 8481,
      "auditorium": 8482,
      "PS": 8483,
      "baking": 8484,
      "ela": 8485,
      "decor": 8486,
      "riding": 8487,
      "SEGMENT": 8488,
      "lung": 8489,
      "pawn": 8490,
      "schol": 8491,
      "myths": 8492,
      "phones": 8493,
      "runs": 8494,
      "Virgin": 8495,
      "Civil": 8496,
      "Kitchen": 8497,
      "isan": 8498,
      "characteristic": 8499,
      "marily": 8500,
      "STRE": 8501,
      "deadly": 8502,
      "RY": 8503,
      "iers": 8504,
      "herbs": 8505,
      "reser": 8506,
      "ango": 8507,
      "flows": 8508,
      "Metrics": 8509,
      "traveled": 8510,
      "Delight": 8511,
      "perpetu": 8512,
      "DNA": 8513,
      "EE": 8514,
      "Liter": 8515,
      "ea": 8516,
      "coins": 8517,
      "valley": 8518,
      "campsite": 8519,
      "Charlot": 8520,
      "encourages": 8521,
      "decline": 8522,
      "blanket": 8523,
      "ambiance": 8524,
      "Fre": 8525,
      "dread": 8526,
      "doll": 8527,
      "iana": 8528,
      "longest": 8529,
      "breathe": 8530,
      "CITY": 8531,
      "searched": 8532,
      "writer": 8533,
      "Discworld": 8534,
      "indelible": 8535,
      "Hid": 8536,
      "restrict": 8537,
      "betrayal": 8538,
      "det": 8539,
      "rote": 8540,
      "geological": 8541,
      "presenting": 8542,
      "Geo": 8543,
      "Depths": 8544,
      "OWN": 8545,
      "Focus": 8546,
      "relentless": 8547,
      "mand": 8548,
      "ua": 8549,
      "eral": 8550,
      "iring": 8551,
      "abases": 8552,
      "Expedition": 8553,
      "handling": 8554,
      "protected": 8555,
      "encourage": 8556,
      "dignity": 8557,
      "Inventory": 8558,
      "Amidst": 8559,
      "Kid": 8560,
      "icks": 8561,
      "plex": 8562,
      "paid": 8563,
      "stairs": 8564,
      "upiter": 8565,
      "actors": 8566,
      "ancestors": 8567,
      "arrival": 8568,
      "calculate": 8569,
      "hoping": 8570,
      "Follow": 8571,
      "inois": 8572,
      "ignore": 8573,
      "2x": 8574,
      "PM": 8575,
      "fert": 8576,
      "beamed": 8577,
      "shor": 8578,
      "fluctu": 8579,
      "Miller": 8580,
      "laced": 8581,
      "ilight": 8582,
      "twilight": 8583,
      "ATE": 8584,
      "couple": 8585,
      "Memory": 8586,
      "retrieve": 8587,
      "Spring": 8588,
      "Differ": 8589,
      "STREET": 8590,
      "Sustain": 8591,
      "update": 8592,
      "relations": 8593,
      "appeal": 8594,
      "generation": 8595,
      "collecting": 8596,
      "parks": 8597,
      "degree": 8598,
      "BioPharm": 8599,
      "tunnels": 8600,
      "Initial": 8601,
      "aligns": 8602,
      "scoring": 8603,
      "element": 8604,
      "50s": 8605,
      "snacks": 8606,
      "Mus": 8607,
      "reass": 8608,
      "Meet": 8609,
      "influencing": 8610,
      "architectural": 8611,
      "instincts": 8612,
      "Gizmo": 8613,
      "].": 8614,
      "crimes": 8615,
      "screaming": 8616,
      "bottom": 8617,
      "dirt": 8618,
      "nail": 8619,
      "seasons": 8620,
      "Stand": 8621,
      "Station": 8622,
      "prey": 8623,
      "whiskey": 8624,
      "nostalgia": 8625,
      "marriage": 8626,
      "comedy": 8627,
      "tournam": 8628,
      "disturbing": 8629,
      "Bedroom": 8630,
      "interior": 8631,
      "onyms": 8632,
      "Appar": 8633,
      "vehicles": 8634,
      "doubt": 8635,
      "Maint": 8636,
      "Pay": 8637,
      "Ten": 8638,
      "stun": 8639,
      "speople": 8640,
      "hearted": 8641,
      "sneak": 8642,
      "extrem": 8643,
      "User": 8644,
      "ont": 8645,
      "aden": 8646,
      "concent": 8647,
      "cheer": 8648,
      "delivered": 8649,
      "meadow": 8650,
      "Mos": 8651,
      "beth": 8652,
      "peril": 8653,
      "actor": 8654,
      "Margaret": 8655,
      "temporary": 8656,
      "Dreamwalker": 8657,
      "declared": 8658,
      "talented": 8659,
      "article": 8660,
      "Jon": 8661,
      "mund": 8662,
      "roamed": 8663,
      "uplifting": 8664,
      "notor": 8665,
      "crush": 8666,
      "surd": 8667,
      "Implies": 8668,
      "Have": 8669,
      "Sheriff": 8670,
      "nose": 8671,
      "server": 8672,
      "objective": 8673,
      "discipline": 8674,
      "Draft": 8675,
      "Illinois": 8676,
      "pony": 8677,
      "earnings": 8678,
      "linger": 8679,
      "lingering": 8680,
      "ocking": 8681,
      "signaling": 8682,
      "stayed": 8683,
      "greenhouse": 8684,
      "Mountains": 8685,
      "saved": 8686,
      "German": 8687,
      "Erebus": 8688,
      "Charlotte": 8689,
      "mud": 8690,
      "asion": 8691,
      "empower": 8692,
      "deepened": 8693,
      "Memories": 8694,
      "constructive": 8695,
      "barr": 8696,
      "send": 8697,
      "coursing": 8698,
      "finger": 8699,
      "paintbrush": 8700,
      "limitations": 8701,
      "ye": 8702,
      "threshold": 8703,
      "emphasized": 8704,
      "Mass": 8705,
      "Stru": 8706,
      "enzy": 8707,
      "west": 8708,
      "ifac": 8709,
      "funding": 8710,
      "ponder": 8711,
      "satisfied": 8712,
      "Olivia": 8713,
      "gor": 8714,
      "suggesting": 8715,
      "heritance": 8716,
      "Crime": 8717,
      "rollercoaster": 8718,
      "ilty": 8719,
      "ules": 8720,
      "blew": 8721,
      "collabor": 8722,
      "primarily": 8723,
      "sider": 8724,
      "wander": 8725,
      "constantly": 8726,
      "parch": 8727,
      "yesterday": 8728,
      "lym": 8729,
      "wet": 8730,
      "2016": 8731,
      "cameras": 8732,
      "director": 8733,
      "reference": 8734,
      "innocent": 8735,
      "programming": 8736,
      "awkward": 8737,
      "Ir": 8738,
      "shame": 8739,
      "ansas": 8740,
      "visually": 8741,
      "capturing": 8742,
      "smartwatch": 8743,
      "Check": 8744,
      "punishment": 8745,
      "blurred": 8746,
      "infectious": 8747,
      "ifaceted": 8748,
      "rifying": 8749,
      "loomed": 8750,
      "townspeople": 8751,
      "produced": 8752,
      "SHOP": 8753,
      "Virginia": 8754,
      "chime": 8755,
      "loves": 8756,
      "intensi": 8757,
      "occup": 8758,
      "bub": 8759,
      "introduction": 8760,
      "belonged": 8761,
      "assumptions": 8762,
      "Hold": 8763,
      "agic": 8764,
      "doctor": 8765,
      "umbled": 8766,
      "examination": 8767,
      "bitter": 8768,
      "trips": 8769,
      "professionals": 8770,
      "Synonyms": 8771,
      "Best": 8772,
      "tag": 8773,
      "inction": 8774,
      "urgency": 8775,
      "essions": 8776,
      "pleas": 8777,
      "Thunder": 8778,
      "boys": 8779,
      "playful": 8780,
      "Spider": 8781,
      "exists": 8782,
      "personalized": 8783,
      "undred": 8784,
      "Mars": 8785,
      "horses": 8786,
      "lakes": 8787,
      "random": 8788,
      "wels": 8789,
      "returning": 8790,
      "meg": 8791,
      "illance": 8792,
      "Integr": 8793,
      "realization": 8794,
      "EchoMind": 8795,
      "indicates": 8796,
      "regret": 8797,
      "\"?": 8798,
      "staple": 8799,
      "expansion": 8800,
      "Development": 8801,
      "wrote": 8802,
      "liber": 8803,
      "20th": 8804,
      "drives": 8805,
      "multifaceted": 8806,
      "infamous": 8807,
      "treated": 8808,
      "Peak": 8809,
      "Juli": 8810,
      "Hallway": 8811,
      "ponytail": 8812,
      "Culture": 8813,
      "finance": 8814,
      "fluid": 8815,
      "electronic": 8816,
      "recognizing": 8817,
      "ABLE": 8818,
      "weaknesses": 8819,
      "emanating": 8820,
      "swimming": 8821,
      "Jupiter": 8822,
      "kill": 8823,
      "rality": 8824,
      "loving": 8825,
      "promising": 8826,
      "masterclass": 8827,
      "FADES": 8828,
      "preserve": 8829,
      "Regularly": 8830,
      "Spanish": 8831,
      "Kara": 8832,
      "healing": 8833,
      "imper": 8834,
      "geometric": 8835,
      "emption": 8836,
      "predat": 8837,
      "offense": 8838,
      "trove": 8839,
      "witnessing": 8840,
      "jewels": 8841,
      "revolutionary": 8842,
      "pler": 8843,
      "Corner": 8844,
      "beneficial": 8845,
      "preventing": 8846,
      "nuts": 8847,
      "astronom": 8848,
      "Control": 8849,
      "therapy": 8850,
      "attractions": 8851,
      "Clear": 8852,
      "osing": 8853,
      "signature": 8854,
      "metaphor": 8855,
      "Closing": 8856,
      "Lumin": 8857,
      "ads": 8858,
      "placing": 8859,
      "applying": 8860,
      "archy": 8861,
      "madness": 8862,
      "antom": 8863,
      "starry": 8864,
      "dium": 8865,
      "shell": 8866,
      "serene": 8867,
      "scram": 8868,
      "alleys": 8869,
      "Mathemat": 8870,
      "Lucas": 8871,
      "Sushi": 8872,
      "jol": 8873,
      "insect": 8874,
      "absurd": 8875,
      "auto": 8876,
      "hoo": 8877,
      "Works": 8878,
      "designers": 8879,
      "staying": 8880,
      "definition": 8881,
      "Interpret": 8882,
      "Even": 8883,
      "Sw": 8884,
      "pion": 8885,
      "sly": 8886,
      "unspoken": 8887,
      "console": 8888,
      "brewing": 8889,
      "handsome": 8890,
      "versat": 8891,
      "rocky": 8892,
      "Queen": 8893,
      "cache": 8894,
      "Theme": 8895,
      "supernatural": 8896,
      "politicians": 8897,
      "tropical": 8898,
      "Hidden": 8899,
      "EV": 8900,
      "Escape": 8901,
      "Matt": 8902,
      "hunt": 8903,
      "invisible": 8904,
      "toys": 8905,
      "disconnected": 8906,
      "raising": 8907,
      "landmarks": 8908,
      "Lastly": 8909,
      "Legends": 8910,
      "Broad": 8911,
      "agricultural": 8912,
      "Talon": 8913,
      "territory": 8914,
      "awakened": 8915,
      "sparking": 8916,
      "Beach": 8917,
      "Rift": 8918,
      "corruption": 8919,
      "vised": 8920,
      "explor": 8921,
      "election": 8922,
      "seriously": 8923,
      "holes": 8924,
      "instruments": 8925,
      "penalty": 8926,
      "vigil": 8927,
      "clothing": 8928,
      "employee": 8929,
      "Introduction": 8930,
      "Maj": 8931,
      "Analytics": 8932,
      "sprinted": 8933,
      "Galactic": 8934,
      "RetailHub": 8935,
      "MARK": 8936,
      "MO": 8937,
      "Treat": 8938,
      "crazy": 8939,
      "listic": 8940,
      "throne": 8941,
      "profile": 8942,
      "respectively": 8943,
      "triumphs": 8944,
      "intertwined": 8945,
      "erosion": 8946,
      "fed": 8947,
      "arc": 8948,
      "defe": 8949,
      "sensors": 8950,
      "harvest": 8951,
      "rushing": 8952,
      "iled": 8953,
      "Instr": 8954,
      "graphics": 8955,
      "Redemption": 8956,
      "grasping": 8957,
      "shouting": 8958,
      "relaxation": 8959,
      "Bob": 8960,
      "Cut": 8961,
      "Christian": 8962,
      "EP": 8963,
      "replace": 8964,
      "spoil": 8965,
      "classical": 8966,
      "suggestions": 8967,
      "motivated": 8968,
      "explicit": 8969,
      "KAEL": 8970,
      "Table": 8971,
      "leap": 8972,
      "vector": 8973,
      "youth": 8974,
      "illness": 8975,
      "systemic": 8976,
      "teamwork": 8977,
      "Lyraea": 8978,
      "symphony": 8979,
      "ieval": 8980,
      "tunnel": 8981,
      "brutal": 8982,
      "writhe": 8983,
      "inery": 8984,
      "dece": 8985,
      "shield": 8986,
      "takeaways": 8987,
      "Syl": 8988,
      "speakers": 8989,
      "creators": 8990,
      "logical": 8991,
      "fficient": 8992,
      "Since": 8993,
      "aline": 8994,
      "administr": 8995,
      "improving": 8996,
      "adjusting": 8997,
      "RetailWorld": 8998,
      "department": 8999,
      "whooshing": 9000,
      "viet": 9001,
      "zone": 9002,
      "leans": 9003,
      "entrepr": 9004,
      "beams": 9005,
      "moil": 9006,
      "Emphas": 9007,
      "adequ": 9008,
      "fortune": 9009,
      "entreprene": 9010,
      "Cade": 9011,
      "Da": 9012,
      "yaml": 9013,
      "inks": 9014,
      "beep": 9015,
      "persist": 9016,
      "cany": 9017,
      "poetry": 9018,
      "applied": 9019,
      "steaming": 9020,
      "Travel": 9021,
      "salt": 9022,
      "Class": 9023,
      "shadowy": 9024,
      "crackled": 9025,
      "welcomed": 9026,
      "Choose": 9027,
      "extremely": 9028,
      "Wid": 9029,
      "grave": 9030,
      "blown": 9031,
      "experts": 9032,
      "showcase": 9033,
      "Legend": 9034,
      "Veil": 9035,
      "fostering": 9036,
      "Challeng": 9037,
      "pher": 9038,
      "som": 9039,
      "pled": 9040,
      "asting": 9041,
      "specified": 9042,
      "Soviet": 9043,
      "employed": 9044,
      "corporate": 9045,
      "swells": 9046,
      "volcanic": 9047,
      "Pasta": 9048,
      "Elizabeth": 9049,
      "notorious": 9050,
      "Fut": 9051,
      "Olym": 9052,
      "TABLE": 9053,
      "Zo": 9054,
      "debris": 9055,
      "updates": 9056,
      "tops": 9057,
      "discoveries": 9058,
      "critiques": 9059,
      "scream": 9060,
      "Retreat": 9061,
      "honor": 9062,
      "Apparatus": 9063,
      "Vide": 9064,
      "pip": 9065,
      "seated": 9066,
      "istical": 9067,
      "stein": 9068,
      "Burger": 9069,
      "contemporary": 9070,
      "honest": 9071,
      "rays": 9072,
      "admir": 9073,
      "gevity": 9074,
      "phr": 9075,
      "Effective": 9076,
      "battles": 9077,
      "lul": 9078,
      "pave": 9079,
      "dealing": 9080,
      "urance": 9081,
      "Addition": 9082,
      "threatening": 9083,
      "troubled": 9084,
      "cooked": 9085,
      "collapse": 9086,
      "0s": 9087,
      "Gor": 9088,
      "pond": 9089,
      "segment": 9090,
      "concise": 9091,
      "disappearance": 9092,
      "ictional": 9093,
      "performing": 9094,
      "publication": 9095,
      "Language": 9096,
      "fills": 9097,
      "vortex": 9098,
      "stals": 9099,
      "Italy": 9100,
      "enery": 9101,
      "turmoil": 9102,
      "pointing": 9103,
      "pointed": 9104,
      "committed": 9105,
      "composed": 9106,
      "colleagues": 9107,
      "Jasper": 9108,
      "Ele": 9109,
      "Krist": 9110,
      "Mur": 9111,
      "Wit": 9112,
      "ply": 9113,
      "algebra": 9114,
      "frequency": 9115,
      "utterly": 9116,
      "complicated": 9117,
      "yml": 9118,
      "Tale": 9119,
      "cannot": 9120,
      "monitor": 9121,
      "economics": 9122,
      "representing": 9123,
      "pup": 9124,
      "stance": 9125,
      "Chain": 9126,
      "Child": 9127,
      "confused": 9128,
      "bloom": 9129,
      "wheel": 9130,
      "recommendations": 9131,
      "Zarek": 9132,
      "physicist": 9133,
      "yeah": 9134,
      "intim": 9135,
      "ura": 9136,
      "boost": 9137,
      "ffy": 9138,
      "Project": 9139,
      "minimum": 9140,
      "lunar": 9141,
      "rings": 9142,
      "disappear": 9143,
      "mechanisms": 9144,
      "reckon": 9145,
      "thriving": 9146,
      "lore": 9147,
      "worries": 9148,
      "findings": 9149,
      "polished": 9150,
      "databases": 9151,
      "affecting": 9152,
      ")]**": 9153,
      "escal": 9154,
      "chron": 9155,
      "iron": 9156,
      "loose": 9157,
      "ecol": 9158,
      "nel": 9159,
      "native": 9160,
      "align": 9161,
      "autonomy": 9162,
      "filtr": 9163,
      "generate": 9164,
      "Work": 9165,
      "beautifully": 9166,
      "Retur": 9167,
      "captivated": 9168,
      "Lakeside": 9169,
      "MetricsDB": 9170,
      "baby": 9171,
      "node": 9172,
      "parted": 9173,
      "Ancient": 9174,
      "groundbreaking": 9175,
      "crypto": 9176,
      "HealthPlus": 9177,
      "Galax": 9178,
      "intentional": 9179,
      "Seren": 9180,
      "Video": 9181,
      "entities": 9182,
      "chased": 9183,
      "ambig": 9184,
      "idy": 9185,
      "pra": 9186,
      "athan": 9187,
      "minate": 9188,
      "economies": 9189,
      "Canada": 9190,
      "Motive": 9191,
      "Curry": 9192,
      "idiomatic": 9193,
      "Blood": 9194,
      "WA": 9195,
      "kit": 9196,
      "unching": 9197,
      "usions": 9198,
      "spending": 9199,
      "noo": 9200,
      "nov": 9201,
      "realistic": 9202,
      "critically": 9203,
      "crystals": 9204,
      "encounters": 9205,
      "HealthGen": 9206,
      "Establ": 9207,
      "Cand": 9208,
      "Net": 9209,
      "anch": 9210,
      "liance": 9211,
      "usement": 9212,
      "popularity": 9213,
      "Community": 9214,
      "GreenEnergy": 9215,
      "creak": 9216,
      "disput": 9217,
      "readings": 9218,
      "explorer": 9219,
      "AutoDrive": 9220,
      "gleaming": 9221,
      "WI": 9222,
      "hanging": 9223,
      "mour": 9224,
      "anom": 9225,
      "cancer": 9226,
      "prem": 9227,
      "stored": 9228,
      "consideration": 9229,
      "perceptions": 9230,
      "piano": 9231,
      "antial": 9232,
      "coll": 9233,
      "profit": 9234,
      "contributing": 9235,
      "aption": 9236,
      "Management": 9237,
      "beaches": 9238,
      "Secrets": 9239,
      "parallel": 9240,
      "flag": 9241,
      "Uncovering": 9242,
      "transmission": 9243,
      "burg": 9244,
      "enchanting": 9245,
      "Prior": 9246,
      "Instrument": 9247,
      "Hu": 9248,
      "mers": 9249,
      "ssing": 9250,
      "strings": 9251,
      "igen": 9252,
      "merch": 9253,
      "scraw": 9254,
      "machinery": 9255,
      "AutoMotive": 9256,
      "Description": 9257,
      "perilous": 9258,
      "aes": 9259,
      "pep": 9260,
      "remove": 9261,
      "emerges": 9262,
      "separated": 9263,
      "comedic": 9264,
      "swirled": 9265,
      "eclipse": 9266,
      "BI": 9267,
      "Fans": 9268,
      "pand": 9269,
      "indifference": 9270,
      "eding": 9271,
      "persu": 9272,
      "formated": 9273,
      "Change": 9274,
      "atted": 9275,
      "Determine": 9276,
      "wearable": 9277,
      "groan": 9278,
      "evaluate": 9279,
      "cramped": 9280,
      "Custom": 9281,
      "Foo": 9282,
      "lam": 9283,
      "embers": 9284,
      "Chronic": 9285,
      "genous": 9286,
      "layers": 9287,
      "Kingdom": 9288,
      "astronomy": 9289,
      "cric": 9290,
      "seren": 9291,
      "silk": 9292,
      "statistics": 9293,
      "crafts": 9294,
      "accountable": 9295,
      "shimmered": 9296,
      "demonstrating": 9297,
      "Spoon": 9298,
      "Port": 9299,
      "orbit": 9300,
      "deck": 9301,
      "gameplay": 9302,
      "imagined": 9303,
      "Looks": 9304,
      "SalesDB": 9305,
      "pleasant": 9306,
      "Crit": 9307,
      "tox": 9308,
      "uncomfortable": 9309,
      "Thing": 9310,
[...]
